{
    "1": "<UNK>",
    "2": "<BOS>",
    "3": "<EOS>",
    "4": "ଠ",
    "5": "ଣ",
    "6": "୨",
    "7": "ଏ",
    "8": "ଦ",
    "9": "ଯ",
    "10": "୭",
    "11": "ଈ",
    "12": "ୃ",
    "13": "ମ",
    "14": "ଊ",
    "15": "ୠ",
    "16": "ଂ",
    "17": "ଔ",
    "18": "ଳ",
    "19": "ଘ",
    "20": "ୀ",
    "21": "ୌ",
    "22": "ଐ",
    "23": "ଛ",
    "24": "ସ",
    "25": "୯",
    "26": "ଝ",
    "27": "ଶ",
    "28": "୦",
    "29": "ର",
    "30": "ୈ",
    "31": "॥",
    "32": "ଢ",
    "33": "ଷ",
    "34": "୪",
    "35": "ୂ",
    "36": "\t",
    "37": "ୄ",
    "38": "୬",
    "39": "।",
    "40": "୮",
    "41": "ଖ",
    "42": "୍",
    "43": "ଧ",
    "44": "ଵ",
    "45": "ୋ",
    "46": "ଜ",
    "47": "ହ",
    "48": " ",
    "49": "ଁ",
    "50": "ଙ",
    "51": "ଅ",
    "52": "୧",
    "53": "ଞ",
    "54": "୩",
    "55": "ଲ",
    "56": "ଓ",
    "57": "ଟ",
    "58": "ତ",
    "59": "ଃ",
    "60": "ଥ",
    "61": "ଡ",
    "62": "୫",
    "63": "ଫ",
    "64": "ନ",
    "65": "ଋ",
    "66": "ଆ",
    "67": "ଚ",
    "68": "ପ",
    "69": "ବ",
    "70": "ଭ",
    "71": "କ",
    "72": "ଇ",
    "73": "ି",
    "74": "ଗ",
    "75": "୰",
    "76": "ୁ",
    "77": "\n",
    "0": "<PAD>",
    "82": "ରେ",
    "83": " ପ",
    "84": " କ",
    "85": "୍ର",
    "86": " ।",
    "87": " ସ",
    "88": " ଅ",
    "89": "ାର",
    "90": "ନ୍",
    "91": " ବ",
    "92": " ମ",
    "93": "ର୍",
    "94": "୍ୟ",
    "95": "ଥି",
    "96": "ଙ୍",
    "97": " ହ",
    "98": "ରି",
    "99": " ନ",
    "100": "ଙ୍କ",
    "101": "ତି",
    "102": " ଦ",
    "103": " ଏ",
    "104": "ବା",
    "105": "ିତ",
    "106": "ଲେ",
    "107": "ିକ",
    "108": " ର",
    "109": "ାନ",
    "110": "ାଇ",
    "111": "କ୍",
    "112": " ପ୍ର",
    "113": "ହି",
    "114": " ଓ",
    "115": "ହା",
    "116": " ଜ",
    "117": " ଆ",
    "118": " ଭ",
    "119": "ତା",
    "120": "ସ୍",
    "121": " କରି",
    "122": "ଲା",
    "123": " ଗ",
    "124": "ଥିଲେ",
    "125": " ଯ",
    "126": "ରୁ",
    "127": "ଷ୍",
    "128": "ମ୍",
    "129": "ନ୍ତ",
    "130": " ଶ",
    "131": "ରା",
    "132": "ଥା",
    "133": "ଟି",
    "134": "ଣ୍",
    "135": "କୁ",
    "136": " ଚ",
    "137": " ବି",
    "138": "ନା",
    "139": "ାରେ",
    "140": "ଡ଼",
    "141": " ନି",
    "142": " ବା",
    "143": "ୋଇ",
    "144": " ଉ",
    "145": "ତ୍",
    "146": "ଛି",
    "147": "ନ୍ଦ",
    "148": "ୋଗ",
    "149": "ିନ",
    "150": "ଦ୍",
    "151": " ସେ",
    "152": "କ୍ଷ",
    "153": " ହୋଇ",
    "154": "ନ୍ତି",
    "155": "ସି",
    "156": " ସ୍",
    "157": " ଅନ",
    "158": "ଧ୍ୟ",
    "159": " ହେ",
    "160": " ୧",
    "161": "ମାନ",
    "162": "୍ଚ",
    "163": "ାମ",
    "164": "ଯା",
    "165": " ଦେ",
    "166": " (",
    "167": " ଏକ",
    "168": "ର୍ଷ",
    "169": "ିତ୍ର",
    "170": " ମଧ୍ୟ",
    "171": " ତ",
    "172": "ାବ",
    "173": "ଣ୍ଡ",
    "174": " ୨",
    "175": "ାଳ",
    "176": "ଥିଲା",
    "177": "କାର",
    "178": "ିଆ",
    "179": "ଷ୍ଟ",
    "180": "ୀୟ",
    "181": "ଥିବା",
    "182": "ିର",
    "183": " ତା",
    "184": " ପାଇ",
    "185": " ଲ",
    "186": "ତ୍ର",
    "187": "ମା",
    "188": "ଙ୍ଗ",
    "189": "ସେ",
    "190": " ଖ",
    "191": "ାର୍",
    "192": "ଯାଏ",
    "193": "ହାର",
    "194": " ଏହି",
    "195": " ପା",
    "196": "ଦେ",
    "197": " ହୁ",
    "198": "ଟେ",
    "199": "ନ୍ୟ",
    "200": " କରିଥିଲେ",
    "201": "ଣା",
    "202": " ପାଇଁ",
    "203": " ସମ",
    "204": " କରା",
    "205": "ଙ୍କର",
    "206": "ଗ୍",
    "207": "ବଂ",
    "208": "  ",
    "209": " ହୁଏ",
    "210": "ବେ",
    "211": "ଙ୍କୁ",
    "212": "୍ୟା",
    "213": " ରା",
    "214": " ନା",
    "215": "ଲି",
    "216": " ଅନୁ",
    "217": "ଏହି",
    "218": " ମା",
    "219": "ରୀ",
    "220": "ଥାଏ",
    "221": "ନି",
    "222": " ଏବଂ",
    "223": "ନ୍ଦିର",
    "224": "ାରୁ",
    "225": "ଳା",
    "226": " କି",
    "227": "ଲ୍",
    "228": " ନିର୍",
    "229": " ଉପ",
    "230": "ଚ୍ଚ",
    "231": "ଯ୍ୟ",
    "232": " ରୋଗ",
    "233": "ବି",
    "234": "ଳି",
    "235": " ପୁ",
    "236": "ଧିକ",
    "237": "ଯାଇ",
    "238": "୍ଜ",
    "239": "ାରତ",
    "240": " ମୁ",
    "241": " ପରି",
    "242": "କି",
    "243": " ଫ",
    "244": "ୂର୍",
    "245": "ିବ",
    "246": "ଏହା",
    "247": "ଞ୍ଜ",
    "248": " ଇ",
    "249": "୍ରୀ",
    "250": "େକ",
    "251": " ଅଭ",
    "252": " ଧ",
    "253": " ମନ୍ଦିର",
    "254": " ସଂ",
    "255": "ଶ୍",
    "256": "ାରା",
    "257": "ମେ",
    "258": "ଦି",
    "259": "ସ୍ତ",
    "260": " ପ୍ରତି",
    "261": "ପ୍ର",
    "262": "ାସ",
    "263": "୦୦",
    "264": " ସହ",
    "265": "ଦ୍ଧ",
    "266": "ମି",
    "267": " ରହି",
    "268": " ସା",
    "269": "ପ୍",
    "270": "ତ୍ତ",
    "271": " ଭାରତ",
    "272": " ବର୍ଷ",
    "273": "ଜା",
    "274": " ମି",
    "275": " ୧୯",
    "276": " ପରେ",
    "277": "କ୍ର",
    "278": "ତମ",
    "279": " କରିବା",
    "280": " ଅବ",
    "281": " ଏହା",
    "282": "ୁର",
    "283": " ମସି",
    "284": " ଚଳ",
    "285": "ଚ୍ଚିତ୍ର",
    "286": " ଅଭିନ",
    "287": "ାୟ",
    "288": " କେ",
    "289": " ଭାବ",
    "290": " ବ୍ୟ",
    "291": "ଳେ",
    "292": "ଦେଶ",
    "293": "ୋକ",
    "294": "େଷ",
    "295": " ଚଳଚ୍ଚିତ୍ର",
    "296": " ଗୁ",
    "297": " ଜଣ",
    "298": "ନ୍ତ୍ର",
    "299": "କ୍ତ",
    "300": "ପା",
    "301": "ମ୍ଭ",
    "302": "ଡି",
    "303": " ଯା",
    "304": " ମସିହା",
    "305": "ଛନ୍ତି",
    "306": " ସମୟ",
    "307": " ବେ",
    "308": "୍ଷ",
    "309": " ଅଟେ",
    "310": " ଅଧିକ",
    "311": " ଦିନ",
    "312": "ଖା",
    "313": "ସାରେ",
    "314": "ିବା",
    "315": "ାରଣ",
    "316": "ୃତ",
    "317": "ପେ",
    "318": "ଣ୍ଣ",
    "319": " ହେବା",
    "320": "ଠାରୁ",
    "321": "ିକା",
    "322": " ସୁ",
    "323": "କା",
    "324": "ଞ୍ଚ",
    "325": "ଥାନ",
    "326": "ଡ଼ି",
    "327": "ମ୍ବ",
    "328": " ନାମ",
    "329": "ଟ୍",
    "330": " କା",
    "331": "ସା",
    "332": "ଦା",
    "333": " ଯେ",
    "334": "ଂଶ",
    "335": " କଥା",
    "336": " ମସିହାରେ",
    "337": " ଥିଲେ",
    "338": " କରାଯାଇ",
    "339": "ାତ",
    "340": "ନ୍ଧ",
    "341": "ୀର",
    "342": "୍ୟୁ",
    "343": "ୀବ",
    "344": " ଘ",
    "345": "ମ୍ପ",
    "346": "ଚିତ୍ର",
    "347": "ଟୋ",
    "348": " ଅନୁସାରେ",
    "349": " କୁ",
    "350": "ମାନଙ୍କ",
    "351": " ଅଭିନୟ",
    "352": "୍ରା",
    "353": " ସି",
    "354": "ଠାରେ",
    "355": " ଭା",
    "356": "ଗୁ",
    "357": " ପର୍",
    "358": "କୋ",
    "359": "ମାନେ",
    "360": "ିଲ୍",
    "361": " ମଧ୍ୟରେ",
    "362": "ପରେ",
    "363": " କରାଯାଏ",
    "364": " ଲା",
    "365": " ରାଜ",
    "366": "ହିଁ",
    "367": " -",
    "368": " ବୋ",
    "369": "ସ୍ଥି",
    "370": " ଗୋ",
    "371": "ଟର",
    "372": "ନ୍ନ",
    "373": " ଜଣେ",
    "374": "ଡ଼ିଆ",
    "375": "ନ୍ତୁ",
    "376": "ୃଷ୍",
    "377": "ହୁ",
    "378": " ପ୍ରଥ",
    "379": "ାରି",
    "380": " ଛ",
    "381": "ମନ୍ତ",
    "382": "୦୧",
    "383": " ଅଗ୍",
    "384": "ଗୋ",
    "385": " ଅଛି",
    "386": "ଡ଼ିକ",
    "387": " ଲୋକ",
    "388": "କ୍ଷା",
    "389": "ୁନ",
    "390": "ଡା",
    "391": "ଣୀ",
    "392": " ଆର",
    "393": " ଯୋଗ",
    "394": "ାରୀ",
    "395": " ଯନ୍ତ୍ର",
    "396": "ବର୍",
    "397": "ଣି",
    "398": " କ୍ଷ",
    "399": " ୩",
    "400": " ପୂର୍",
    "401": " କଥାଚିତ୍ର",
    "402": "ଭା",
    "403": " ଶି",
    "404": " ଟ",
    "405": "ନ୍ମ",
    "406": "ବୁ",
    "407": " ଭାରତୀୟ",
    "408": "ଶୀ",
    "409": "ଣୁ",
    "410": "ଳ୍",
    "411": " ନେ",
    "412": "ଖି",
    "413": "ଶ୍ଵ",
    "414": " ଶେଷ",
    "415": "ଜ୍",
    "416": " ମହା",
    "417": " ବ୍ୟବ",
    "418": "ୱା",
    "419": " ଆଉ",
    "420": "୍ରେ",
    "421": " ଦେଇ",
    "422": " କର",
    "423": " ଥିବା",
    "424": "ବର୍ଷ",
    "425": " ମେ",
    "426": " ଦୁ",
    "427": "ମୁ",
    "428": "ଦ୍ୟ",
    "429": "ଷ୍ଠ",
    "430": "ଦ୍ଵ",
    "431": "ଜି",
    "432": " ଖେ",
    "433": "ଭି",
    "434": "ସର",
    "435": "ତ୍ୟ",
    "436": " ଆରମ୍ଭ",
    "437": "କାରୀ",
    "438": " ଦେବ",
    "439": " \"",
    "440": " ଦ୍",
    "441": "ଳ୍ପ",
    "442": "ୀନ",
    "443": "ନେ",
    "444": "ଗ୍ର",
    "445": " ,",
    "446": " ତାଙ୍କର",
    "447": " ହେଉ",
    "448": " ରହିଛି",
    "449": "କ୍ତି",
    "450": "ଗ୍ରେ",
    "451": " ସ୍ଥାନ",
    "452": "ୀତ",
    "453": "ହେ",
    "454": "ିତା",
    "455": "ଳରେ",
    "456": "କ୍ଷଣ",
    "457": " ପ୍ରଥମ",
    "458": "ିତ୍",
    "459": " ସମୟରେ",
    "460": "ମଣ",
    "461": " ପର୍ଯ୍ୟ",
    "462": "ଶୟ",
    "463": "ହ୍",
    "464": " ତି",
    "465": "ସ୍ଥା",
    "466": " ଅକ୍",
    "467": "ଅଧ",
    "468": "ଶି",
    "469": " ୪",
    "470": "ବାର",
    "471": "ଗତ",
    "472": " କଲେ",
    "473": " ଅନେକ",
    "474": " ଓଡ଼ିଆ",
    "475": " ବୋଲି",
    "476": " ଔ",
    "477": " ହି",
    "478": " ନିମନ୍ତ",
    "479": " ନିମନ୍ତେ",
    "480": "ୋଟ",
    "481": "ଖ୍ୟ",
    "482": " ଭାବେ",
    "483": " ଥିଲା",
    "484": " ନାଗ",
    "485": " ଯନ୍ତ୍ରଣା",
    "486": " ନାହିଁ",
    "487": "ଧାନ",
    "488": "ରରେ",
    "489": " ପ୍ରା",
    "490": " ଦେଖା",
    "491": " ଜନ",
    "492": "ଦ୍ଦେଶ",
    "493": "ଳୀ",
    "494": "ଦ୍ର",
    "495": "ଲୋ",
    "496": " ତାଙ୍କ",
    "497": "ିବସ",
    "498": "‌ହ",
    "499": "ବର",
    "500": " ଯାହା",
    "501": "ଷଧ",
    "502": "ଶ୍ୱ",
    "503": " ନିଜ",
    "504": " ଅଧ",
    "505": "ଦ୍ଵାରା",
    "506": " ଚିତ୍ର",
    "507": " କିଛି",
    "508": "ସନ",
    "509": "୧୯",
    "510": " ଅନ୍ୟ",
    "511": "ଲୁ",
    "512": " ଜନ୍ମ",
    "513": "ତେକ",
    "514": " ଅଟ",
    "515": "ପୁ",
    "516": "ଞ୍ଜି",
    "517": "ପି",
    "518": " ‌",
    "519": " ଗ୍ର",
    "520": "ର୍ମ",
    "521": "ଶୁ",
    "522": "ିୟ",
    "523": "ଦେବ",
    "524": " ଗୁଡ଼ିକ",
    "525": " ବର୍ଷର",
    "526": " ଦିବସ",
    "527": "ଟିଏ",
    "528": "ତେ",
    "529": "ଗି",
    "530": "ବ୍",
    "531": "ଯୋଗ",
    "532": "ୟୁ",
    "533": " କରୁ",
    "534": "ର୍ଶ",
    "535": " ୫",
    "536": "ପାରେ",
    "537": " ହୋଇଥାଏ",
    "538": "ଜୀ",
    "539": "ତ୍ତି",
    "540": " ଚା",
    "541": "କୋର୍",
    "542": " ହୋଇଥିଲା",
    "543": "ଧାରଣ",
    "544": " ଦିଆ",
    "545": "ଉଁ",
    "546": " ନିର୍ଦ୍ଦେଶ",
    "547": " ଭାବରେ",
    "548": " ସ‌ହ",
    "549": " ବାକି",
    "550": " ଦି",
    "551": "ନ୍ଦ୍ର",
    "552": " ପୂର୍ବ",
    "553": "ଦୀ",
    "554": "ରୋ",
    "555": " ୨୦୧",
    "556": " ଔଷଧ",
    "557": "ଚନା",
    "558": " ଭୂ",
    "559": "ଂକୋର୍",
    "560": "ମାଣ",
    "561": " ଥ",
    "562": " ପାଞ୍ଜି",
    "563": "ସ୍ଥିତ",
    "564": "ମିକ",
    "565": "ତନ",
    "566": " ପର",
    "567": "େତ୍ର",
    "568": "ାର୍ଯ୍ୟ",
    "569": " ଯୋଗୁ",
    "570": "ହିତ",
    "571": "ଣ୍ଟ",
    "572": " କ୍ର",
    "573": "ଜୁନ",
    "574": "ଗ୍ରେଗୋ",
    "575": "ଗ୍ରେଗୋରୀ",
    "576": "ଅଧିବ",
    "577": "ଅଧିବର୍ଷ",
    "578": " ଗୁଡ଼ିକରେ",
    "579": "ତମ)",
    "580": " ବର୍",
    "581": " ଯୁ",
    "582": " ଶ୍ରୀ",
    "583": "ୃଷ୍ଟି",
    "584": "ୃତି",
    "585": "ପୁର",
    "586": "ବର୍ତ୍ତ",
    "587": "କେ",
    "588": "ର୍ଭ",
    "589": "ଥିରେ",
    "590": "ଜନ",
    "591": "ଢ଼",
    "592": " ଜିଲ୍",
    "593": " କୋ",
    "594": " ବୟ",
    "595": " ଏହାର",
    "596": " ଜୀବ",
    "597": " କରନ୍ତି",
    "598": "ମ୍ବା",
    "599": " କିନ୍ତୁ",
    "600": "ର୍କ",
    "601": " ଗା",
    "602": " ବୃ",
    "603": "ଟକ",
    "604": " ବେଳେ",
    "605": " ଅର୍",
    "606": " ଅଗ",
    "607": " ୭",
    "608": "ପରି",
    "609": "ଚିତ",
    "610": " ପର୍ଯ୍ୟନ୍ତ",
    "611": " ଲେ",
    "612": " ମାନ",
    "613": " ଅକ୍ଟୋ",
    "614": "ାଳୟ",
    "615": " ମନ୍ଦିରର",
    "616": "ଜ୍ଞ",
    "617": " ୬",
    "618": " ହେଲେ",
    "619": " ଅନ୍ତ",
    "620": " ତେ",
    "621": "ଶା",
    "622": "ୟୀ",
    "623": "ସ୍ଥ",
    "624": " ଡି",
    "625": " ଅନନ୍ତ",
    "626": " ଶୁ",
    "627": "ଗର",
    "628": " ଜଣା",
    "629": " ସବୁ",
    "630": "ୋଜ",
    "631": "ାର୍ଜୁନ",
    "632": " ସର୍",
    "633": "ସୁ",
    "634": "େଟ",
    "635": "ାଳି",
    "636": " କମ",
    "637": "ଗା",
    "638": "ଶ୍ର",
    "639": "ହଣ",
    "640": " ୱା",
    "641": " କାର୍ଯ୍ୟ",
    "642": " ଦୁଇ",
    "643": "ଥିବ",
    "644": " ଉପରେ",
    "645": " ଅବସ୍ଥିତ",
    "646": " ଗୋଟିଏ",
    "647": " ରୂ",
    "648": " ସର",
    "649": "ଗରେ",
    "650": "ଡେ",
    "651": "ଣ୍ଡା",
    "652": " ପ୍ରକାର",
    "653": " ୧୯୯",
    "654": "ୟକ",
    "655": "ୈତ",
    "656": "ଏହାର",
    "657": "ଥାନ୍ତି",
    "658": "ଡ଼ା",
    "659": "ସ୍କ",
    "660": " ମୁଖ୍ୟ",
    "661": "ନୋ",
    "662": " ନେଇ",
    "663": " କୌ",
    "664": "ଣସି",
    "665": "ତ୍ୟା",
    "666": " ହୋଇଥିଲେ",
    "667": "୍ରି",
    "668": "ରଣ",
    "669": " ଅତି",
    "670": "ତଃ",
    "671": " ଯାଇ",
    "672": "ଶେଷ",
    "673": " ଜାତ",
    "674": " ସାମ",
    "675": "ଦାନ",
    "676": " କରେ",
    "677": " ୨୦୦",
    "678": " ଥାଏ",
    "679": " ଖେଳି",
    "680": "ନାଥ",
    "681": " ଉଚ୍ଚ",
    "682": " କଳା",
    "683": " ଦୂ",
    "684": " କୁହା",
    "685": "ମନ୍ଦିର",
    "686": "ଭାବ",
    "687": "ତ୍ଵ",
    "688": "ଦ୍ୱ",
    "689": " ଅକ୍ଷ",
    "690": "ପର",
    "691": " କେତେକ",
    "692": " କାରଣ",
    "693": "ସରେ",
    "694": "କ୍ରମଣ",
    "695": " ପି",
    "696": "ବେଳେ",
    "697": "ନୀ",
    "698": "ସଂ",
    "699": " ଉତ୍",
    "700": " ଭାଷ",
    "701": " ଉତ୍ତ",
    "702": "ତୁ",
    "703": " ଅଟନ୍ତି",
    "704": " ବୁ",
    "705": "ବାହ",
    "706": " ଭଳି",
    "707": " ତାଙ୍କୁ",
    "708": "ୈତନ୍ୟ",
    "709": " ସ୍ଵ",
    "710": "ଲାର",
    "711": " ଆଦି",
    "712": "ମିତ",
    "713": "ିମ",
    "714": "ନିକ",
    "715": " ସାଧାରଣ",
    "716": " ପୋ",
    "717": "ଅନ",
    "718": " ଠାରୁ",
    "719": " ଦେଖାଯାଏ",
    "720": "ଯୁ",
    "721": " ଅଂକୋର୍",
    "722": "ରିକ",
    "723": "ନ୍ଥ",
    "724": "ଶ୍ଚ",
    "725": "ପ୍ତ",
    "726": " ହୋଇଛି",
    "727": " ଫୁ",
    "728": " ତଥା",
    "729": "  ",
    "730": "ଜୟ",
    "731": " ଚି",
    "732": " ମହ",
    "733": " ଜାତୀୟ",
    "734": " ପାଳ",
    "735": " ଦେଇଥିଲେ",
    "736": " କାମ",
    "737": " ପୂ",
    "738": " ବିଶ୍ଵ",
    "739": " ସମ୍ପ",
    "740": " ଆସି",
    "741": "ତାଙ୍କ",
    "742": "ନ୍ୟା",
    "743": " ଭୋଗ",
    "744": "ସ୍କାର",
    "745": " ଅଗଷ୍ଟ",
    "746": " ସହିତ",
    "747": " ଓଡ଼ି",
    "748": "ଡିକ",
    "749": " ହେଲା",
    "750": "ଧା",
    "751": " ଦ୍ଵ",
    "752": "ିକ୍ଷ",
    "753": " ବିଷ",
    "754": "ଟିର",
    "755": "ପସ",
    "756": " ପରୀ",
    "757": " ଟେ",
    "758": " ଦାସ",
    "759": " ଅଗ୍ନି",
    "760": "ଦ୍ୱାରା",
    "761": "ରୁଷ",
    "762": " ନାଗାର୍ଜୁନ",
    "763": "ଦ୍ୟାଳୟ",
    "764": " ୯",
    "765": " ସୃଷ୍ଟି",
    "766": "ମୀ",
    "767": " ପାର୍",
    "768": "ଶ୍ୟ",
    "769": " ଦକ୍ଷ",
    "770": " ରାଜ୍ୟ",
    "771": " ସମସ୍ତ",
    "772": " ବହୁ",
    "773": " ହୋଇଥିବା",
    "774": "ଠା",
    "775": " ୮",
    "776": "ଖ୍ୟା",
    "777": " ଖା",
    "778": "ଥୀ",
    "779": "ଟା",
    "780": "ଦିନ",
    "781": " ହେଇ",
    "782": " ସମ୍",
    "783": "କାଶ",
    "784": " ପୁର",
    "785": "ୃଷ୍ଣ",
    "786": " ୱାଟ୍",
    "787": "ପୂର୍",
    "788": " ଖୋ",
    "789": "ରର",
    "790": "ଠି",
    "791": "ଷ୍ଟ୍ର",
    "792": " ଲକ୍ଷଣ",
    "793": " ରୋଗୀ",
    "794": "ମ୍ବର",
    "795": "କାଳ",
    "796": " ରଚନା",
    "797": " ହିନ୍ଦ",
    "798": " ମୋ",
    "799": " ଲାଗି",
    "800": "ରାମ",
    "801": " ସ୍ୱ",
    "802": " ଯେଉଁ",
    "803": " କ୍ଷେତ୍ର",
    "804": "ବ୍ଦ",
    "805": "ନରେ",
    "806": " ମଧ୍ୟରୁ",
    "807": " ପ୍ରସ୍ତ",
    "808": "କର",
    "809": " ଚୈତନ୍ୟ",
    "810": " ଚଳଚ୍ଚିତ୍ରରେ",
    "811": " ଜି",
    "812": "ନାଶୟ",
    "813": " ରୋ",
    "814": " ବ୍ୟବହାର",
    "815": " ଭିତ",
    "816": " ବ୍ର",
    "817": " ପୂଜା",
    "818": " କୌଣସି",
    "819": "ଚ୍",
    "820": " ଝ",
    "821": " ଜଳ",
    "822": " ପ୍ରାୟ",
    "823": " ମୁଣ୍ଡ",
    "824": "ମାନଙ୍କର",
    "825": " ଡ",
    "826": "ଭିନ୍ନ",
    "827": " ଭଲ",
    "828": " ପୁରସ୍କାର",
    "829": "ତ୍ରା",
    "830": " ଡା",
    "831": "ଫଳ",
    "832": " ମୂ",
    "833": " ପେ",
    "834": " ମୃତ",
    "835": " ସ୍ଥାନରେ",
    "836": " ବିଭିନ୍ନ",
    "837": "ିକେଟ",
    "838": "ବାଦ",
    "839": "ଭେ",
    "840": "‌ରେ",
    "841": "ହିତ୍ୟ",
    "842": " ଦିଆଯାଏ",
    "843": "ବାକୁ",
    "844": " ତାହା",
    "845": " ବିଶେଷ",
    "846": " ଚେ",
    "847": "ବଳ",
    "848": " ରେ",
    "849": " କରିଛନ୍ତି",
    "850": "୨୦୧",
    "851": " ହାର",
    "852": "ତାଙ୍କର",
    "853": " ଅକ୍ଟୋବର",
    "854": "ଭାରତ",
    "855": " କ୍",
    "856": " ରାଜା",
    "857": "ିତୀୟ",
    "858": " ନିର୍ମିତ",
    "859": " ହେଉଛି",
    "860": " ରି",
    "861": " ଯଥା",
    "862": "ସ୍‍",
    "863": " କରିଥିଲା",
    "864": "ଲିକ",
    "865": " ବ୍ୟା",
    "866": "ହିଳା",
    "867": "ମରେ",
    "868": " ଅଂଶ",
    "869": " ମିଳି",
    "870": "ପାଇ",
    "871": " ବିଷ୍",
    "872": " ସେହି",
    "873": "ତୀ",
    "874": " ୱ",
    "875": " ନିର୍ମାଣ",
    "876": "ଶାଳ",
    "877": "ଯାଉ",
    "878": " ପୁନ",
    "879": " ଜା",
    "880": " ସୋ",
    "881": " ଦଳ",
    "882": "ଦାହ",
    "883": "ନର",
    "884": " ନାମକ",
    "885": "୨୦୦",
    "886": "ଚଳ",
    "887": "ମାର",
    "888": "ଆନ୍ତି",
    "889": "ରିଆ",
    "890": "ଅଞ୍ଜ",
    "891": "ଣ୍ଡି",
    "892": " ଅନ୍ତର୍",
    "893": "ଚନ",
    "894": "ଗୁଡ଼ିକ",
    "895": " ରକ୍ତ",
    "896": " ଶ୍ରେ",
    "897": " ରୂପେ",
    "898": " ସ୍ଥା",
    "899": " ଇତ୍ୟା",
    "900": "ତିକ",
    "901": " ପ୍ରେ",
    "902": " କରିଥିବା",
    "903": " କଷ୍ଟ",
    "904": "ଧି",
    "905": "ଥର",
    "906": "ଙ୍ଗା",
    "907": " ୧୨",
    "908": " ମହିଳା",
    "909": " କଟି",
    "910": " ଚିକ",
    "911": "ଅଁ",
    "912": "ଲାଭ",
    "913": " ଓଡ଼ିଶ",
    "914": "ଯୁକ୍ତ",
    "915": "ତ୍ରୀ",
    "916": " କୁହାଯାଏ",
    "917": "ଦଶୀ",
    "918": " ବିଷ୍ଣୁ",
    "919": "ଗ୍ରୀ",
    "920": "ଖରେ",
    "921": " କାଳ",
    "922": "ଶ୍ଚିମ",
    "923": "ିଣ",
    "924": "ାଂଶ",
    "925": "ମୋ",
    "926": " ଛା",
    "927": "ବେଶ",
    "928": " ବିଷୟ",
    "929": " ଆବ",
    "930": "ଲାଇ",
    "931": "ଭୂ",
    "932": " ଜିଲ୍ଲା",
    "933": " ଖେଳ",
    "934": " ମୁକ୍ତି",
    "935": " ପରୀକ୍ଷା",
    "936": "ଲୀ",
    "937": "ଗନ୍",
    "938": "ଗନ୍ନାଥ",
    "939": " ସାହିତ୍ୟ",
    "940": " ଅଗ୍ନାଶୟ",
    "941": "ହ୍ନ",
    "942": " କରାଯାଇଥାଏ",
    "943": "ୀର୍",
    "944": "ବନ",
    "945": "ପ୍ରା",
    "946": " ବୃକ୍ଷ",
    "947": " ବିଶ୍ୱ",
    "948": "ତାର",
    "949": "ୂର୍ତ୍ତି",
    "950": " ସ୍ଥାପ",
    "951": " କରାଯାଇଛି",
    "952": " କରିବାକୁ",
    "953": " ସମା",
    "954": "ମାନଙ୍କୁ",
    "955": "ଟରେ",
    "956": " ମତ",
    "957": "ଦିତ",
    "958": "ୁଦ୍ର",
    "959": " ସପ୍",
    "960": "ଜିତ",
    "961": "ସବ",
    "962": " ତିଆ",
    "963": "ଗଲା",
    "964": "ଥିବାରୁ",
    "965": " ଛୋଟ",
    "966": "ଚାର",
    "967": "ଥେ",
    "968": "ୋଜନା",
    "969": " ଭୂମିକ",
    "970": " ଶିଶୁ",
    "971": " ୨୨",
    "972": "ଚି",
    "973": " ୨୩",
    "974": " ସ୍ନା",
    "975": " ଚିକିତ୍",
    "976": "ଅନନ୍ତ",
    "977": " ଶା",
    "978": " ସର୍ବ",
    "979": " ଗ୍ରାମ",
    "980": "ବ୍ୟ",
    "981": " ବାହାର",
    "982": " ଦେବୀ",
    "983": " ନୂ",
    "984": "ିକ୍",
    "985": " ମାସ",
    "986": " ପରିବର୍ତ୍ତ",
    "987": "ଗଣ",
    "988": " ଆକ",
    "989": " ମେରୁ",
    "990": " ଇତ୍ୟାଦି",
    "991": "ତାରେ",
    "992": "ୁତ",
    "993": "ସାର",
    "994": "ୁଆ",
    "995": "ଣ୍ଟି",
    "996": " ନିର୍ଣ୍ଣ",
    "997": "ଜ୍ଞାନ",
    "998": "ଦ୍ଧି",
    "999": " ସଙ୍ଗ",
    "1000": "ୟା",
    "1001": " ଧରି",
    "1002": "ତ୍ୱ",
    "1003": " ଅପରେ",
    "1004": "ଜପେ",
    "1005": "କପ",
    "1006": "ଥୀନା",
    "1007": "ିବାକୁ",
    "1008": "ଅନ୍ୟ",
    "1009": " ନାମରେ",
    "1010": " ଏହାକୁ",
    "1011": "କ୍ଷ୍",
    "1012": "ଚ୍ଛ",
    "1013": "ମୁଖ",
    "1014": "ପତି",
    "1015": "ପାନ",
    "1016": " ଭାରତର",
    "1017": " ତିଆରି",
    "1018": "ତର",
    "1019": "କ୍ରିୟ",
    "1020": "ସ୍ଥାନ",
    "1021": "ନୁ",
    "1022": " ପଦ",
    "1023": " ଅତ୍ୟ",
    "1024": "୍ୱ",
    "1025": " ହୋଇପାରେ",
    "1026": " ୨୯",
    "1027": "ୃତୀୟ",
    "1028": "ଫି",
    "1029": " ଜଗତ",
    "1030": "ଚ୍ୟୁ",
    "1031": "ଜପେୟୀ",
    "1032": " ଜିଲ୍ଲାର",
    "1033": " ଭାଗ",
    "1034": " ପାଳନ",
    "1035": " ଲୁ",
    "1036": " କିମ୍ବା",
    "1037": "କରି",
    "1038": " ପ୍ରକାଶ",
    "1039": "ୀରେ",
    "1040": " ମୃତ୍ୟୁ",
    "1041": " ମୁକ୍ତିଲାଭ",
    "1042": "ଅଗ୍",
    "1043": "ଜେ",
    "1044": " ସପ୍ତା",
    "1045": "ୀବ୍ର",
    "1046": "ିନେ",
    "1047": " ହାସ",
    "1048": "ଢ଼ି",
    "1049": "ନାୟକ",
    "1050": " ଅପରେଶ",
    "1051": "କପାଳି",
    "1052": " ନିର୍ବା",
    "1053": " ଅଳ୍ପ",
    "1054": "ଲୁଗୁ",
    "1055": " ଏକା",
    "1056": "ନ୍‌",
    "1057": "ଦର୍ଶ",
    "1058": " କାହା",
    "1059": "ଲେଖ",
    "1060": "ବାସ",
    "1061": "ରୁଦ୍ଧ",
    "1062": "ଅନ୍ତି",
    "1063": "ପ୍ରେ",
    "1064": " ପୂର୍ବରୁ",
    "1065": " ୧୯୭",
    "1066": " ବୈ",
    "1067": "ଂରା",
    "1068": "ଂରାଜୀ",
    "1069": " ଶିକ୍ଷ",
    "1070": " ଭୂମିକାରେ",
    "1071": " ପ୍ରତିଶ",
    "1072": " ବୟସ",
    "1073": " ସପ୍ତାହ",
    "1074": " ହା",
    "1075": "ପୋ",
    "1076": " ୧୩",
    "1077": " ପୁରା",
    "1078": "ଗ୍ରହଣ",
    "1079": " ତିନି",
    "1080": "ବିଦ୍ୟାଳୟ",
    "1081": " ଖାଦ୍ୟ",
    "1082": " ପ୍ରଦାହ",
    "1083": " ଅଣ",
    "1084": " ଗର୍ଭ",
    "1085": "ନ୍ୟାଶୟ",
    "1086": " ଅଥୀନା",
    "1087": "ୁମ",
    "1088": "ଷ୍ୟ",
    "1089": "ନ,",
    "1090": " ବ୍ରତ",
    "1091": "କାର୍",
    "1092": "ୃହ",
    "1093": " ଅର୍ଥ",
    "1094": " ଅଞ୍ଚ",
    "1095": "ଚୀନ",
    "1096": "ସ୍ଥିତି",
    "1097": " ଦକ୍ଷିଣ",
    "1098": "ଂସ",
    "1099": " ଉପା",
    "1100": " ଋ",
    "1101": "ପାର",
    "1102": "ସିକ",
    "1103": " ତର",
    "1104": "ଶ୍ୟକ",
    "1105": "ସେଥି",
    "1106": "ଦନ",
    "1107": "ନ୍ତା",
    "1108": "୍ରୋ",
    "1109": " ଜେ",
    "1110": " ତୀବ୍ର",
    "1111": " ପିତା",
    "1112": " ଆଇ",
    "1113": " ଚିକିତ୍ସା",
    "1114": " ଅଧି",
    "1115": "ଚ୍ୟୁତ",
    "1116": " ମଣ୍ଡ",
    "1117": "ଷ୍ଠିତ",
    "1118": "ଦ୍ଦି",
    "1119": " ଜୀବନ",
    "1120": " ଶତା",
    "1121": "ଳକୁ",
    "1122": " କରାଯାଇଥିଲା",
    "1123": " ପାର",
    "1124": " ଭି",
    "1125": " ସମ୍ପର୍କ",
    "1126": "ଷ୍ଟା",
    "1127": " କୃଷ୍ଣ",
    "1128": " ଶବ୍ଦ",
    "1129": " ଉତ୍ତର",
    "1130": " ୧୫",
    "1131": " ଦେଶ",
    "1132": " ବିପ",
    "1133": " ୧୯୮",
    "1134": " ସୂ",
    "1135": "ଜୀବ",
    "1136": "ଂହ",
    "1137": " ପ୍ରଭାବ",
    "1138": " ମାତ୍ର",
    "1139": "ସିଆ",
    "1140": " ହାଇ",
    "1141": " କଥାଚିତ୍ରଟିର",
    "1142": "ଷି",
    "1143": " ମୋଟ",
    "1144": " ସଂକ୍ରମଣ",
    "1145": " ମ୍ୟା",
    "1146": " ବର୍ଣ୍ଣ",
    "1147": "ଣ୍ଠ",
    "1148": "ଏକ",
    "1149": "ଆଁ",
    "1150": " ଦୂରରେ",
    "1151": " କହି",
    "1152": "ତକ",
    "1153": " ଗ୍ରହଣ",
    "1154": " କାନ୍ଥ",
    "1155": " ପଶ୍ଚିମ",
    "1156": "ୟୋ",
    "1157": "କୃତି",
    "1158": " ଗୁଡିକ",
    "1159": " ପ୍ରବେଶ",
    "1160": " ବାର",
    "1161": " ୩୦",
    "1162": "ମିଟର",
    "1163": " ୧୮",
    "1164": " ୨୧",
    "1165": "ଙ୍କା",
    "1166": " ଅବସ୍ଥା",
    "1167": "ଜାତ",
    "1168": " ନିର୍ଣ୍ଣୟ",
    "1169": " କ୍ରିକେଟ",
    "1170": " ଟେଷ୍ଟ",
    "1171": " ଖେଳିଥିଲେ",
    "1172": " ନିର୍ଦ୍ଦେଶନା",
    "1173": " କାହାଣୀ",
    "1174": " କୃ",
    "1175": " ନାରୀ",
    "1176": " ରାଓ",
    "1177": " ନିର୍ଦ୍ଦେଶକ",
    "1178": " ତେଲୁଗୁ",
    "1179": " ବିବାହ",
    "1180": " ଲାଗ",
    "1181": " ଅଣ୍ଡା",
    "1182": " ଗଛ",
    "1183": "ର୍ଯ୍ୟ",
    "1184": "ୋଷ",
    "1185": "ର୍ଣ୍ଣ",
    "1186": " ଭଗ",
    "1187": "ଟିକ",
    "1188": " ନିକ",
    "1189": " ସ୍ଥି",
    "1190": " ଲେଖି",
    "1191": "ପାରି",
    "1192": " ପ୍ରଥମେ",
    "1193": "ଜଣ",
    "1194": " ୧୪",
    "1195": "ଶୀଳ",
    "1196": " ଦର୍ଶ",
    "1197": " କ୍ଷେତ୍ରରେ",
    "1198": "ନ୍ଧି",
    "1199": " ହାତ",
    "1200": "ବକ",
    "1201": "ୁବ",
    "1202": "ମାନଙ୍କରେ",
    "1203": " ସରକାର",
    "1204": "ରୋଧ",
    "1205": "୦%",
    "1206": " ୨୮",
    "1207": " ଦ୍ୱ",
    "1208": "କ୍‌",
    "1209": "େଇ",
    "1210": "ଜନ୍ମ",
    "1211": " '",
    "1212": " ଫଳ",
    "1213": "ହାରା",
    "1214": " ବଂଶ",
    "1215": " ପ୍ରତିଶତ",
    "1216": " ଯାଏ",
    "1217": "କିନେ",
    "1218": "କିନେନି",
    "1219": "ଶ୍ୱର",
    "1220": " ଚାଲି",
    "1221": " ଫିଲ୍",
    "1222": " ନୀ",
    "1223": "ଅକ୍ଷ",
    "1224": " (ଇ",
    "1225": " ଚକ୍ର",
    "1226": " ଚିହ୍ନ",
    "1227": " ଅମ",
    "1228": "ଦ୍ରା",
    "1229": "ନଙ୍କ",
    "1230": " ମୂର୍ତ୍ତି",
    "1231": "୦୦୦",
    "1232": "ପୂର୍ଣ୍ଣ",
    "1233": ".୫",
    "1234": " ଦୂର",
    "1235": "କେତେକ",
    "1236": "ତିରେ",
    "1237": "‍ର",
    "1238": "ଶ୍ଵର",
    "1239": " ସମ୍ଭ",
    "1240": "ବର୍ତ୍ତୀ",
    "1241": " ସହର",
    "1242": " ନେଇଥିଲେ",
    "1243": "ଚେ",
    "1244": "ଲିଆ",
    "1245": " ଲାଭ",
    "1246": " ସଙ୍କ",
    "1247": " ହେଉଥିବା",
    "1248": " ଆବଶ୍ୟକ",
    "1249": " ଚଳଚ୍ଚିତ୍ରଟି",
    "1250": " ପରିବର୍ତ୍ତନ",
    "1251": " କଳାକାର",
    "1252": "),",
    "1253": "ଠାକୁ",
    "1254": " ପୁରୁଷ",
    "1255": " ତୃତୀୟ",
    "1256": "ତେବେ",
    "1257": " ଜଗତରେ",
    "1258": "ନାଗ",
    "1259": "୬ରେ",
    "1260": " ହିନ୍ଦୀ",
    "1261": " ୤",
    "1262": " ଅଙ୍ଗ",
    "1263": " ନ୍ୟ",
    "1264": "ଅଦା",
    "1265": " ମ୍ୟାଚ",
    "1266": "ସ୍ତ୍ର",
    "1267": " ଅନ୍ତର୍ଗତ",
    "1268": " ସଭା",
    "1269": "ଏଠାରେ",
    "1270": "ପାଇଁ",
    "1271": " ମିଶ୍ର",
    "1272": "ଓଡ଼ିଆ",
    "1273": "ଯାଇଛି",
    "1274": "ରାଜ",
    "1275": " ବଳ",
    "1276": " ତୁ",
    "1277": "ହେଁ",
    "1278": "ନାନ",
    "1279": " କେନ୍ଦ୍ର",
    "1280": "ଖର",
    "1281": " ପ୍ରାଚୀନ",
    "1282": "ଚା",
    "1283": " ସୁର",
    "1284": " ସମ୍ମାନ",
    "1285": " ଗଠ",
    "1286": " ରଖ",
    "1287": " ପୂର୍ଣ୍ଣ",
    "1288": " ଦେହ",
    "1289": " ଟ୍ର",
    "1290": " ବିଭା",
    "1291": " ବନ୍ଦ",
    "1292": "ଦ୍ଦିଷ୍ଟ",
    "1293": " ଭିତରେ",
    "1294": " ନାୟକ",
    "1295": " ଜନସଂ",
    "1296": " ଭାଷା",
    "1297": "ିଅ",
    "1298": "ସିନ",
    "1299": " ଲାର୍",
    "1300": " ନାଟକ",
    "1301": " ଦିଲ୍",
    "1302": " ଅକ୍ଟୋପସ",
    "1303": " କବି",
    "1304": " ଅଗ୍ନ୍ୟାଶୟ",
    "1305": " ପ୍ରତିଯୋଗ",
    "1306": " ବାଜପେୟୀ",
    "1307": "ଦର",
    "1308": " ୪୦",
    "1309": " ପତ୍ର",
    "1310": " ଆକାର",
    "1311": "ଫା",
    "1312": " ରଖି",
    "1313": " ବ୍ରା",
    "1314": "ହ୍ମଣ",
    "1315": " ଧର୍ମ",
    "1316": " ପହ",
    "1317": "ଞ୍ଚି",
    "1318": "ମେର୍",
    "1319": " ଭାଷାରେ",
    "1320": " ଦ୍ଵିତୀୟ",
    "1321": "ଳର",
    "1322": " ପର୍ବ",
    "1323": " ଖାଇ",
    "1324": " ଦିଗରେ",
    "1325": "ବୀ",
    "1326": " ୧୧",
    "1327": "ନାହିଁ",
    "1328": " ରହିଥିବା",
    "1329": "ଜରେ",
    "1330": "ଲରେ",
    "1331": "ତ୍ତ୍ଵ",
    "1332": "ଚକ",
    "1333": " ବିଷୟରେ",
    "1334": "ପରିକି",
    "1335": "ଅଧିକ",
    "1336": " ଅପେ",
    "1337": " ଆର୍",
    "1338": " ଆମେ",
    "1339": " ଇଂ",
    "1340": " ପ୍ରସ୍ତୁତ",
    "1341": "ାନା",
    "1342": " କଲା",
    "1343": " ପରିବାର",
    "1344": " ଟ୍ରି",
    "1345": "ମତା",
    "1346": " ଜନ୍ମଗ୍ରହଣ",
    "1347": " ବନ୍ଧ",
    "1348": " ଫିଲ୍ମ",
    "1349": " ଦିଲ୍ଲୀ",
    "1350": "ବାରା",
    "1351": " (ଇଂରାଜୀ",
    "1352": " ପ୍ରଧାନ",
    "1353": " କବ",
    "1354": " ରୋଗରେ",
    "1355": "ସାଧାରଣ",
    "1356": "ମନ୍ତ୍ରୀ",
    "1357": "ଦିତି",
    "1358": " ଅଧକପାଳି",
    "1359": "ଞ୍ଜନ",
    "1360": " ଓଡ଼ିଶାର",
    "1361": " ଅଲ",
    "1362": "ସ,",
    "1363": "ସାୟ",
    "1364": "ର୍ଦ୍ଧ",
    "1365": " ପୀ",
    "1366": "କ୍ଳ",
    "1367": "ସ୍ଵ",
    "1368": "ଦନ୍ତ",
    "1369": " ହେବ",
    "1370": " ସେଠାରେ",
    "1371": " କରିଥାନ୍ତି",
    "1372": " କ୍ଷ୍",
    "1373": "କୃତ",
    "1374": " ପ୍ରମୁଖ",
    "1375": "ଲୋକ",
    "1376": " ଜଣାଯାଏ",
    "1377": " ଲେଖ",
    "1378": " ହିଁ",
    "1379": "ଶକ",
    "1380": " ଥାଇ",
    "1381": "ୋର",
    "1382": " ୨୪",
    "1383": " ୧୦",
    "1384": "ମ୍ନ",
    "1385": " ଅଭି",
    "1386": "ବେଷ",
    "1387": "ତ୍ନ",
    "1388": "ହନ",
    "1389": " ପଥର",
    "1390": " ପ୍ରଶ",
    "1391": " କରୁଥିବା",
    "1392": "ଦ୍ମ",
    "1393": " ସଂଖ୍ୟା",
    "1394": " ସଫଳ",
    "1395": "୧୯୯",
    "1396": " ରଙ୍ଗ",
    "1397": " ଗଣ",
    "1398": " ପ୍ରୋ",
    "1399": " ମୁଣ୍ଡବ",
    "1400": " ମୁଣ୍ଡବଥା",
    "1401": " ବ୍ୟକ୍ତି",
    "1402": "‌ର",
    "1403": " ଶିକ୍ଷା",
    "1404": " ଦେବା",
    "1405": "ମ୍ବାଇ",
    "1406": " ହୋ",
    "1407": ".ଆ",
    "1408": " ଆକ୍ରମଣ",
    "1409": " ସମ୍ବ",
    "1410": "ବିକ",
    "1411": " କର୍କ",
    "1412": " ଅନୁଭ",
    "1413": "ଶ୍ରୀ",
    "1414": " ଯୋ",
    "1415": "ାମିନ",
    "1416": " ଲାର୍ଭା",
    "1417": ".ମି",
    "1418": " ବଡ଼",
    "1419": "ଅଁଳା",
    "1420": "ଗୁଡିକ",
    "1421": "ଣିକ",
    "1422": " ଭଗବା",
    "1423": " ବ୍ରାହ୍ମଣ",
    "1424": " –",
    "1425": "କ୍ଷରେ",
    "1426": "ସେହି",
    "1427": "କିନ୍ତୁ",
    "1428": "ୁହେଁ",
    "1429": "କାର୍ଯ୍ୟ",
    "1430": "ଅଂକୋର୍",
    "1431": "ମ୍ଵ",
    "1432": "ଡିଆ",
    "1433": " ୧୬",
    "1434": "ୂର୍ଯ୍ୟ",
    "1435": " ବାସ",
    "1436": " ଆୟ",
    "1437": " ଭିନ୍ନ",
    "1438": " ସମୁଦ୍ର",
    "1439": "ସମ",
    "1440": " ପୁତ୍ର",
    "1441": " ଅନୁମାନ",
    "1442": " ୨୭",
    "1443": " ସୁରକ୍ଷା",
    "1444": "ୌର",
    "1445": "ତିହା",
    "1446": " ଗୃହ",
    "1447": " କେବଳ",
    "1448": " ଅପେକ୍ଷା",
    "1449": "ରୀର",
    "1450": "ମାତ୍ର",
    "1451": "୩ରେ",
    "1452": "ଏଥିରେ",
    "1453": " ୨୦",
    "1454": " ସାହା",
    "1455": " ସାହାଯ୍ୟ",
    "1456": "ଜାତୀୟ",
    "1457": " ଅତ୍ୟଧିକ",
    "1458": " ବ୍ୟବସ୍ଥା",
    "1459": "ମାରୀ",
    "1460": " ଫେ",
    "1461": "ଶ୍ରମ",
    "1462": "୪ରେ",
    "1463": "ଟିରେ",
    "1464": " ଗାଁ",
    "1465": "ପଣ",
    "1466": ".୭",
    "1467": " ମୁମ୍ବାଇ",
    "1468": "ୃଥିବ",
    "1469": "ଫ୍",
    "1470": "ନ୍ସ",
    "1471": " ମାତା",
    "1472": "ଷ୍ଟି",
    "1473": " ଦେଲେ",
    "1474": " ବିଜୟ",
    "1475": " ଯୋଜନା",
    "1476": " ରଥ",
    "1477": " ଜଗନ୍ନାଥ",
    "1478": " ମଠ",
    "1479": " ରହେ",
    "1480": "ହୀନ",
    "1481": " କମି",
    "1482": "ଯେ",
    "1483": "ଟ୍ରେ",
    "1484": "ମିଆ",
    "1485": " ଅଣସର",
    "1486": "କେଣ୍ଡ",
    "1487": " ବ୍",
    "1488": " ଦେଖ",
    "1489": "ଶିଷ୍ଟ",
    "1490": " ଆମ",
    "1491": " ‘",
    "1492": "ଲ୍‌",
    "1493": "ଭୟ",
    "1494": "ଦେବଙ୍କ",
    "1495": " ଦୁଇଟି",
    "1496": " ଚତୁ",
    "1497": " ଖୋଦିତ",
    "1498": " ରାମ",
    "1499": " ଆଧ",
    "1500": " “",
    "1501": " ସହରର",
    "1502": " କରାଯାଉ",
    "1503": " ନୁହେଁ",
    "1504": "ଗୋଳ",
    "1505": "କ୍ରିୟା",
    "1506": " ଶକ୍ତି",
    "1507": " ଅସ୍ଥି",
    "1508": "ଅଧିକାଂଶ",
    "1509": " ଲି",
    "1510": "ୟଣ",
    "1511": " ମନୋ",
    "1512": "ୟନ",
    "1513": " ୧୭",
    "1514": "ସନ୍",
    "1515": "ର୍ମା",
    "1516": "ପ୍ରତି",
    "1517": " ଓଜନ",
    "1518": " ତରଳ",
    "1519": "ରୋଗ",
    "1520": " ଥର",
    "1521": "୫ରେ",
    "1522": " ସଙ୍ଗୀତ",
    "1523": "ସମୁ",
    "1524": " ମହାରା",
    "1525": " ମିଳେ",
    "1526": " ରୋଗର",
    "1527": "୍ଵ",
    "1528": " ପ୍ରଦେଶ",
    "1529": "ଷା",
    "1530": "େତା",
    "1531": " ଅକ୍କିନେନି",
    "1532": "େଶ୍ୱର",
    "1533": " ପ୍ରେମ",
    "1534": "ଟ୍ଟ",
    "1535": " ମାଧ୍ୟ",
    "1536": "ଏହାପରେ",
    "1537": " ନୂଆ",
    "1538": "ଶମ",
    "1539": "ାନନ୍ଦ",
    "1540": " ବଢ଼ି",
    "1541": " ୟ",
    "1542": " ଜିତି",
    "1543": "ତୃ",
    "1544": " ଗାଆଁ",
    "1545": " ନିର୍ବାଚନ",
    "1546": " ମଧ",
    "1547": " ଅଅଁଳା",
    "1548": " ଶ୍ରେଷ୍ଠ",
    "1549": " ଲକ୍ଷ୍",
    "1550": "ବିଧା",
    "1551": " ସ୍ଥ",
    "1552": "ନ୍ଦୁ",
    "1553": " କ୍ଷ୍ମେର୍",
    "1554": " ସୂର୍ଯ୍ୟ",
    "1555": "ୋଧ",
    "1556": "ର୍ଷଣ",
    "1557": "ାନୁ",
    "1558": " ଚିତ୍ରଶାଳ",
    "1559": " କାନ୍ଥରେ",
    "1560": "ଙ୍କଦ୍ଵାରା",
    "1561": " ଗ୍ରୀ",
    "1562": "ତେବେଳେ",
    "1563": "ରୁଦ୍ଧାର",
    "1564": "ଛା",
    "1565": "ର୍ଥ",
    "1566": "୍ୟରେ",
    "1567": " ସ୍ତ",
    "1568": "ାନ୍ୟ",
    "1569": " ସିଂହ",
    "1570": "ଣରେ",
    "1571": "ଦିଆ",
    "1572": "ାବେ",
    "1573": " ସରକାରୀ",
    "1574": " ନିୟ",
    "1575": "ସୋ",
    "1576": " ଅଙ୍କ",
    "1577": "ଦାୟ",
    "1578": " ସାଧାରଣତଃ",
    "1579": " ବର",
    "1580": " ଜିଲ୍ଲାରେ",
    "1581": "ିନି",
    "1582": "ନ୍ତର୍",
    "1583": " ପ୍ରଯ",
    "1584": " ଗୀତ",
    "1585": " ମହାନ୍ତି",
    "1586": "ଗ୍ରହ",
    "1587": ".୧",
    "1588": "ପ୍ରିୟ",
    "1589": "ାମୁ",
    "1590": " ଦୁର୍",
    "1591": "୧ରେ",
    "1592": " ସୀ",
    "1593": "ଅକ୍",
    "1594": " କର୍",
    "1595": "୯ରେ",
    "1596": " ମାଆ",
    "1597": "ଗଲେ",
    "1598": " ହାସଲ",
    "1599": " ପାଇଥିଲେ",
    "1600": " ତାମି",
    "1601": " ପୁନଃ",
    "1602": "ଭଳି",
    "1603": "ତ୍ମ",
    "1604": "୮ରେ",
    "1605": " ବିକ",
    "1606": " କର୍ମ",
    "1607": " ସୁଗ",
    "1608": " ଝା",
    "1609": "ମିତ୍ର",
    "1610": " ନ୍ୟାୟ",
    "1611": " ଅଦା",
    "1612": " ୧୯୬",
    "1613": "ଅଛି",
    "1614": "ଟଣା",
    "1615": "ଲକ",
    "1616": " ବିଦ୍ୟାଳୟ",
    "1617": " ଅନୁଷ୍ଠିତ",
    "1618": "ଳକ",
    "1619": "ଦନ୍ତୀ",
    "1620": " ସେମାନଙ୍କ",
    "1621": " ପାଖରେ",
    "1622": "ସୀ",
    "1623": " ସମସ",
    "1624": " ଚାରି",
    "1625": "ଦଶ",
    "1626": " ଦୀର୍",
    "1627": " ଦୀର୍ଘ",
    "1628": " କଳ",
    "1629": "ଦର୍ଶନ",
    "1630": " ଢ",
    "1631": " କିଲୋ",
    "1632": " ଯୁଦ୍ଧ",
    "1633": "ୁତି",
    "1634": " କେହି",
    "1635": "ଥିବାର",
    "1636": " ପ୍ରଦାନ",
    "1637": "ଲ୍ଲେଖ",
    "1638": " କରାଇ",
    "1639": " ପୁନରୁଦ୍ଧାର",
    "1640": " ଶାସ",
    "1641": "କ୍ଷାଂଶ",
    "1642": " ଶ୍ରେଣୀ",
    "1643": "ଳନ",
    "1644": " ଗବେଷ",
    "1645": "ଣ୍ଟା",
    "1646": "ଗଣନା",
    "1647": "ନିର୍",
    "1648": " ଦେବତା",
    "1649": " ପଦ୍ମ",
    "1650": " ପାଖ",
    "1651": " ଘର",
    "1652": "ାର୍ଥ",
    "1653": "ସ୍ର",
    "1654": " ପାଣି",
    "1655": " ଉତ୍ସବ",
    "1656": "ମର",
    "1657": "ଦୁ",
    "1658": "ାରୀରିକ",
    "1659": "ଦରେ",
    "1660": "ଲଣ୍ଡ",
    "1661": "ଟ୍ୟ",
    "1662": "ଳୁ",
    "1663": "ପାଳ",
    "1664": " ଫୁଟ",
    "1665": " ଷ୍ଟ",
    "1666": " ଯେଉଁଥିରେ",
    "1667": " ପେଟ",
    "1668": " ହଜ",
    "1669": "ମ୍ବାର",
    "1670": " ପୁଅ",
    "1671": "ଭେମ୍ବର",
    "1672": "ସାଇ",
    "1673": "ଟ୍ର",
    "1674": "ନଳୀ",
    "1675": "ରିତ",
    "1676": " ଟାଇ",
    "1677": " ଭାଇ",
    "1678": " କର୍କଟ",
    "1679": " ଅଭିନେତ୍ର",
    "1680": " ଅଭିନେତ୍ରୀ",
    "1681": " ମୁଖ",
    "1682": " ସ୍କୁ",
    "1683": " ପାଉ",
    "1684": "ଫେ",
    "1685": " ଜୁ",
    "1686": "କ୍ସ",
    "1687": " ନୀତି",
    "1688": ".ଏ",
    "1689": "ସେମ୍ବର",
    "1690": " ସେବନ",
    "1691": " ଅପରେଶନ",
    "1692": "ପାତ୍ର",
    "1693": " ନଦୀ",
    "1694": " ଅବଦାନ",
    "1695": " ।।",
    "1696": " ସ୍ନାୟୁ",
    "1697": "ସ୍‍ଙ୍କ",
    "1698": "ତନ୍ତ୍ର",
    "1699": " ମଣ୍ଡଳୀ",
    "1700": ".ମି.",
    "1701": " ଦ୍ର",
    "1702": "ଷ୍ମ",
    "1703": " ଶୁକ୍ଳ",
    "1704": " ହିନ୍ଦୁ",
    "1705": " ବିଷ୍ଣୁଙ୍କ",
    "1706": "କ୍ଷର",
    "1707": "ୁଥିବା",
    "1708": " ପଡ଼ି",
    "1709": "ଯାୟୀ",
    "1710": " ମନ",
    "1711": "କ୍ରମେ",
    "1712": " ଶତାବ୍ଦ",
    "1713": " ଶତାବ୍ଦୀର",
    "1714": "ମନ",
    "1715": " ବର୍ତ୍ତ",
    "1716": " ବର୍ତ୍ତମାନ",
    "1717": " ପରିଚିତ",
    "1718": "ସର୍",
    "1719": "ଷ୍ଠା",
    "1720": " କରୁଥିଲେ",
    "1721": "ଜୁ",
    "1722": " ଉଲ୍ଲେଖ",
    "1723": " କରାଗଲା",
    "1724": " ପ୍ରକାରର",
    "1725": " ଉପର",
    "1726": " କରିବାରେ",
    "1727": " ଅକ୍ଷାଂଶ",
    "1728": " ପଞ୍ଚ",
    "1729": " ହୁଅନ୍ତି",
    "1730": "ହନ୍ତି",
    "1731": "ଦାର",
    "1732": "ଭୁ",
    "1733": "ବନ୍ଧ",
    "1734": " ଯେପରିକି",
    "1735": "ତୀତ",
    "1736": "ଲ,",
    "1737": " କମ୍",
    "1738": " ଭୂମ",
    "1739": " ଦାୟ",
    "1740": "ସ୍,",
    "1741": " ଲକ୍ଷ",
    "1742": " ଆଗ",
    "1743": " ରାଷ୍ଟ୍ର",
    "1744": "ିକାଶ",
    "1745": "ଦେଇ",
    "1746": "ଘାତ",
    "1747": " ଅପ",
    "1748": " ସଙ୍କଟ",
    "1749": " ଜ୍ୱ",
    "1750": " ଉପଦେଶ",
    "1751": " ହ୍ର",
    "1752": "ଡ୍",
    "1753": " ଖେଳାଳି",
    "1754": "ଜର",
    "1755": "ଣ୍ଟର",
    "1756": " ପାଳିତ",
    "1757": "ଥାଆନ୍ତି",
    "1758": "ଠାକୁର",
    "1759": " ପତନ",
    "1760": " ଜନଗଣନା",
    "1761": " ୧୯୪",
    "1762": " ଡିଗ୍ରୀ",
    "1763": "ଭାରତୀୟ",
    "1764": ".ଆଇ",
    "1765": ".ଆଇ.",
    "1766": " ଅଧିକାର",
    "1767": " ବାରମ୍ବାର",
    "1768": "ଟୀ",
    "1769": " କରିଥାଏ",
    "1770": " ଘା",
    "1771": " ୨୫",
    "1772": " ନଭେମ୍ବର",
    "1773": " ଅଭିନେତା",
    "1774": "ସ୍‌",
    "1775": "ମ୍‌",
    "1776": "ୟାର",
    "1777": " ତାମିଲ",
    "1778": " ଦର",
    "1779": " ବାହାରି",
    "1780": " କମ୍ପ",
    "1781": "ଣ୍ଣା",
    "1782": "ାନ୍ତ",
    "1783": " ହେଉଛନ୍ତି",
    "1784": "ଜଗନ୍ନାଥ",
    "1785": " ଶ୍ରୀମନ୍ଦିର",
    "1786": " ଧାରା",
    "1787": " ମହାବିଦ୍ୟାଳୟ",
    "1788": " ବୟସରେ",
    "1789": " ୫୦",
    "1790": "ଣ୍ଡୋ",
    "1791": "ନିଆ",
    "1792": " କବିତା",
    "1793": "ଅଗ୍ନି",
    "1794": " ମହାପାତ୍ର",
    "1795": " ଜାମିନ",
    "1796": " ଅଲି",
    "1797": "ଅଙ୍ଗ",
    "1798": " ଅଚ୍ୟୁତ",
    "1799": "ନସନ",
    "1800": " ଉପାଦେ",
    "1801": " ଉପାଦେୟ",
    "1802": "ଏହାକୁ",
    "1803": " ଯୁକ୍ତ",
    "1804": " ଶିବ",
    "1805": "ପତ୍ର",
    "1806": "ିଏ",
    "1807": " ଅଲଗା",
    "1808": " ଫା",
    "1809": " ସଂସ୍କ",
    "1810": " ନୂତନ",
    "1811": "ଚ୍ଛା",
    "1812": "ବୃ",
    "1813": " (୧",
    "1814": "ସ୍ଥଳୀ",
    "1815": "ପୂର୍ବ",
    "1816": " ସ୍ଥାପତ୍ୟ",
    "1817": " ଦୃ",
    "1818": " ଚେଷ୍ଟା",
    "1819": " ଶିଳା",
    "1820": " ଯୋଗୁଁ",
    "1821": " ଅଧିକାଂଶ",
    "1822": "ଳିତ",
    "1823": " କରାଯାଇଥିବା",
    "1824": " ଭ୍ର",
    "1825": " ନଷ୍ଟ",
    "1826": " ପରିଚ",
    "1827": "ଭ୍ୟ",
    "1828": "ାନର",
    "1829": "ଷଣ",
    "1830": " ଚନ୍ଦ୍ର",
    "1831": " ଚର୍ମ",
    "1832": "ପ୍ରଥ",
    "1833": "ଦେଲେ",
    "1834": " ୧୦୦",
    "1835": "ଯିବା",
    "1836": " ପକ",
    "1837": " ପକାଇ",
    "1838": " ମସିହାର",
    "1839": "ାବଧାନ",
    "1840": " ସ୍ପ",
    "1841": " ବୃଦ୍ଧି",
    "1842": " ସେବା",
    "1843": " ବଦ",
    "1844": "ିନୀ",
    "1845": "ଷ୍ପ",
    "1846": "ତାପ",
    "1847": "ରିକାରେ",
    "1848": "ଖାପା",
    "1849": "ଖାପାଖି",
    "1850": " (ଜନ୍ମ",
    "1851": "ସାବ",
    "1852": " ଇଂଲଣ୍ଡ",
    "1853": "ବାଧିକ",
    "1854": " ଅବସର",
    "1855": " ଦଳର",
    "1856": " ନିଜେ",
    "1857": " ଆନ୍ତର୍",
    "1858": "ଘର",
    "1859": "ଉର",
    "1860": "ଙ୍ଗାବାଦ",
    "1861": " ଜନସଂଖ୍ୟା",
    "1862": ".୨",
    "1863": "୧%",
    "1864": " କିଲୋମିଟର",
    "1865": " ଏସ",
    "1866": " ପାରେ",
    "1867": " )",
    "1868": " ଅଷ୍ଟ",
    "1869": "ଅମ",
    "1870": "ହାରୀ",
    "1871": " ଜରିଆ",
    "1872": " ଜରିଆରେ",
    "1873": "୫୯",
    "1874": " ମାଧ୍ୟମରେ",
    "1875": "ଉଣୀ",
    "1876": "ଠୁ",
    "1877": " ହୁଏ,",
    "1878": " ଅନୁଭବ",
    "1879": "ହାରେ",
    "1880": " କଥାଚିତ୍ରରେ",
    "1881": "ଅକ୍ଷୟ",
    "1882": " ଓଡ଼ିଶାରେ",
    "1883": " ଅକ୍ଷୟ",
    "1884": "ବ୍ର",
    "1885": " ପାପ",
    "1886": " ପ୍ରତିନି",
    "1887": " ବର୍ଣ୍ଣନା",
    "1888": "ଢି",
    "1889": " ଲାଗେ",
    "1890": " ବିଜ୍ଞାନ",
    "1891": " ପଟ୍ଟ",
    "1892": "ରୁଣା",
    "1893": " ଯାଉ",
    "1894": " ପୃଥିବ",
    "1895": "ସାଦ",
    "1896": " ଗଳ୍ପ",
    "1897": " ଡିସେମ୍ବର",
    "1898": "‌ହାର",
    "1899": "ସ୍ରା",
    "1900": "ଠିକ",
    "1901": "ହାଣ",
    "1902": " ହେଇଥିଲା",
    "1903": " ଧାରଣ",
    "1904": "ପୋର୍",
    "1905": "ର୍ଡ",
    "1906": " ପୋକ",
    "1907": " ସ୍ତର",
    "1908": "ଠର",
    "1909": " |",
    "1910": " ପ୍ରଧାନମନ୍ତ୍ରୀ",
    "1911": " ଦ୍ବାରା",
    "1912": " ହର୍",
    "1913": "ମ୍ଭୀର",
    "1914": "‍ଇ",
    "1915": " କଣ୍ଠ",
    "1916": " ବିଧାନ",
    "1917": " ଉଦ୍",
    "1918": " ବିଶିଷ୍ଟ",
    "1919": "ନାମ",
    "1920": "ଶର",
    "1921": " ଏକାଦଶୀ",
    "1922": "ୌରା",
    "1923": "ସ୍ୱ",
    "1924": " ଭଗବାନ",
    "1925": " ପ୍ରତିମା",
    "1926": "ପନ",
    "1927": " ଭେ",
    "1928": " କରୁଛନ୍ତି",
    "1929": " ସତ୍ୟ",
    "1930": " ଅନୁଯାୟୀ",
    "1931": " ନିକଟରେ",
    "1932": "ଟର୍",
    "1933": " ରାଜଧାନ",
    "1934": " ରାଜଧାନୀ",
    "1935": " ମନ୍ଦିରରେ",
    "1936": " ବେଳକୁ",
    "1937": " ପାର୍ଶ୍ଵ",
    "1938": "ସିଦ୍ଧ",
    "1939": "ମନ୍ଦିରର",
    "1940": " ତ୍ର",
    "1941": "୍ରୀଷ୍ଟ",
    "1942": " ନିଜର",
    "1943": " କାରୁ",
    "1944": "ନ୍ଦର",
    "1945": " ଅଞ୍ଚଳରେ",
    "1946": " ବସ",
    "1947": " ଛାଡି",
    "1948": " ପ୍ରମାଣ",
    "1949": " ଅସ",
    "1950": " ୧୯୯୦",
    "1951": "ଣ୍ଠି",
    "1952": " ଦ୍ରା",
    "1953": " ଦ୍ରାଘ",
    "1954": "ିମା",
    "1955": " ରହିଥିଲା",
    "1956": " ମୌ",
    "1957": "ଘା",
    "1958": " ମାଂସ",
    "1959": "ପେଶୀ",
    "1960": " ମତରେ",
    "1961": "ଲର",
    "1962": " ଯିବା",
    "1963": " ପଦାର୍ଥ",
    "1964": " ମିଟର",
    "1965": "ୋଟି",
    "1966": "ପାରିବ",
    "1967": " ପରା",
    "1968": "କୃଷ୍ଣ",
    "1969": "ମୂ",
    "1970": "୧୯୬",
    "1971": "ଯାଇଥିଲା",
    "1972": "ାରମ୍ଭ",
    "1973": " ବିକାଶ",
    "1974": " ଉନ୍ନ",
    "1975": ".୦",
    "1976": " ବୟସ୍କ",
    "1977": "ଇବା",
    "1978": " ରୁ",
    "1979": " ହିସାବ",
    "1980": " ଶତକ",
    "1981": " ସର୍ବାଧିକ",
    "1982": "ୟିକା",
    "1983": " ମାନେ",
    "1984": ".୩",
    "1985": "ସମୁଦ୍ର",
    "1986": " ପତନଠାରୁ",
    "1987": "ସେଥିରୁ",
    "1988": " ବୟସରୁ",
    "1989": " ଅନୁଗୋଳ",
    "1990": " ସମ୍ବନ୍ଧ",
    "1991": "ଶିଶୁ",
    "1992": " ଉପକାର",
    "1993": "କ୍ତା",
    "1994": "ଲାଣ୍ଡ",
    "1995": " ଡେ",
    "1996": " ଜୀ",
    "1997": " ନାଗା",
    "1998": " ମେନ",
    "1999": " ନାଗେଶ୍ୱର",
    "2000": "ନାଗାର୍ଜୁନ",
    "2001": "ମ୍ୱ",
    "2002": " ବନ୍ଧୁ",
    "2003": " ଅଛନ୍ତି",
    "2004": " ଅନ୍ୟତମ",
    "2005": " ପରାମ",
    "2006": " ପରାମର୍ଶ",
    "2007": "ଲ୍ୟ",
    "2008": "କିଛି",
    "2009": "ତ୍ଵର",
    "2010": "ୂତ",
    "2011": " ପୁରାଣ",
    "2012": " ଧୂ",
    "2013": "ନ୍ଦନ",
    "2014": " ପଟ୍ଟନାୟକ",
    "2015": " ନିଉ",
    "2016": " ପରିସ୍ରା",
    "2017": "ଭର",
    "2018": " ବଞ୍ଚ",
    "2019": " ଉପଶମ",
    "2020": " ବଂଶର",
    "2021": "ଗଡ଼",
    "2022": " ଅଲିମ୍ପ",
    "2023": "ଅଚ୍ୟୁତ",
    "2024": " ପାରି",
    "2025": " ପ୍ରତିନିଧ",
    "2026": " ପ୍ରତିନିଧିତ୍",
    "2027": "ିତାରେ",
    "2028": " ଏଥେ",
    "2029": " ହୋ‍ଇ",
    "2030": " ମିଗ୍ରେ",
    "2031": " ଅନଙ୍ଗ",
    "2032": " ଦେଖିବାକୁ",
    "2033": "କ,",
    "2034": "ିତ୍ତ",
    "2035": "ମ୍ଳ",
    "2036": " ଅନି",
    "2037": "ୀ,",
    "2038": " ଭକ୍ତ",
    "2039": " ସେମାନେ",
    "2040": " ଲକ୍ଷ୍ମୀ",
    "2041": "ବତୀ",
    "2042": " ଉଭୟ",
    "2043": " ପହଞ୍ଚି",
    "2044": "ୋଡିଆ",
    "2045": "୍ୟର",
    "2046": " ପର୍ଯ୍ୟଟକ",
    "2047": " ଶିଖର",
    "2048": " ଯାହାକି",
    "2049": "ୁନିକ",
    "2050": "କଥା",
    "2051": " ଦୈ",
    "2052": " ଏଠାରେ",
    "2053": "ଳ୍ପୀ",
    "2054": " କାରୁକାର୍ଯ୍ୟ",
    "2055": "ପଦ",
    "2056": "ନାରେ",
    "2057": "ୋହ",
    "2058": "ପ୍ରାପ୍ତ",
    "2059": "ଆମେ",
    "2060": "ଣ୍ଡର",
    "2061": "ହୁଏ",
    "2062": " ରଖିବା",
    "2063": "ପାତ",
    "2064": " ସ୍ଥିର",
    "2065": "ଅତି",
    "2066": " ଦ୍ଵାର",
    "2067": " ପଟର",
    "2068": " ବଡ",
    "2069": " ସଦ",
    "2070": " ୭୦",
    "2071": "ର୍ତ୍ତ",
    "2072": " ସଂସ୍ଥା",
    "2073": " ଦଶ",
    "2074": "ୀଙ୍କ",
    "2075": " ସନ୍ତ",
    "2076": "ଜ୍ଞାନିକ",
    "2077": " ପର୍ଯ୍ୟଟ",
    "2078": " ତତ୍ତ୍ଵ",
    "2079": "ର୍ଚ୍ଚ",
    "2080": " ଜନିତ",
    "2081": "ସିୟ",
    "2082": "ଷେ",
    "2083": "ଷେଧ",
    "2084": "ୟାମ",
    "2085": "ଅଣ",
    "2086": " କଟକ",
    "2087": " ପାଖାପାଖି",
    "2088": " ରଣ",
    "2089": " ପ୍ରଯୋଜନା",
    "2090": "ୈଳ",
    "2091": "ାଇଥିଲେ",
    "2092": "ଯାଇଥାଏ",
    "2093": " କାଳରେ",
    "2094": "ଉରଙ୍ଗାବାଦ",
    "2095": " ଅନୁସାରେ,",
    "2096": "ଅଟେ",
    "2097": "ପୁରୁଷ",
    "2098": "ପ୍ରାୟ",
    "2099": " ବାର୍",
    "2100": "ଷିକ",
    "2101": "ହାରି",
    "2102": ".ଆଇ.ଡି",
    "2103": ".ଆଇ.ଡି.",
    "2104": " ନିର୍ଦ୍ଦିଷ୍ଟ",
    "2105": "ହୋଇ",
    "2106": "ାରରେ",
    "2107": "ଜାତି",
    "2108": " ଓଡ଼ିଶା",
    "2109": "ାଇନ",
    "2110": "ଫୋ",
    "2111": " କରିବାର",
    "2112": " ଚୈତନ୍ୟଙ୍କର",
    "2113": " ଅଭିନୀତ",
    "2114": " ଝିଅ",
    "2115": "ଖିଳ",
    "2116": "ଣିବା",
    "2117": "ଅଜୟ",
    "2118": " ଯାହାର",
    "2119": " ଲୋକପ୍ରିୟ",
    "2120": " କୁମାର",
    "2121": " ପ୍ରାପ୍ତ",
    "2122": " ତାକୁ",
    "2123": " ମଇ",
    "2124": " ୟୁ",
    "2125": "ନ୍ୟାସ",
    "2126": " ଅଭାବ",
    "2127": " ସ୍ୱା",
    "2128": " ଏକାଡେ",
    "2129": "ଡ଼େ",
    "2130": " ବ୍ୟବ‌ହାର",
    "2131": "କାଳୀନ",
    "2132": "ଟିସ",
    "2133": "ଘ୍ର",
    "2134": " ରୋଗୀଙ୍କ",
    "2135": " ଉପଚାର",
    "2136": " ଦାସ,",
    "2137": " ମହାଦେବ",
    "2138": " ଭାଙ୍ଗ",
    "2139": " ରିପୋର୍",
    "2140": "ଯିବ",
    "2141": " ଉପଯୋଗ",
    "2142": "ଙ୍କୁଶକ",
    "2143": "ଙ୍କୁଶକୃ",
    "2144": " ସମ୍ଭାବ",
    "2145": " ସମ୍ଭାବନା",
    "2146": "ଯେଉଁ",
    "2147": " ଆଶ୍ରମ",
    "2148": "ିଲ",
    "2149": "ଣାରେ",
    "2150": "ପ୍ରୋ",
    "2151": " ହକି",
    "2152": "ଯଦି",
    "2153": "ମ୍ମ",
    "2154": "ଗଡ",
    "2155": " ଅଞ୍ଜ",
    "2156": " ପେନସନ",
    "2157": "ନାଲ",
    "2158": "କିସ୍ତ",
    "2159": " ଅଦିତି",
    "2160": " ଉପକାରୀ",
    "2161": " ରୋଗୀଙ୍କର",
    "2162": " କୁମ୍ଭୀର",
    "2163": "ମାଳ",
    "2164": " ପିଲା",
    "2165": " ଜୟ",
    "2166": "ଥମିକ",
    "2167": " ମିଳିଥାଏ",
    "2168": "ଓଡ଼ି",
    "2169": " ଧା",
    "2170": "ଳ,",
    "2171": " ଦା",
    "2172": " ମୂତ୍ରା",
    "2173": " ବାୟୁ",
    "2174": "ଶୋ",
    "2175": "ନୋଟି",
    "2176": " ଭିତରୁ",
    "2177": "ୌରାଣିକ",
    "2178": "ତ୍ୟେକ",
    "2179": "କଳ୍ପ",
    "2180": "ଥରେ",
    "2181": " ହରି",
    "2182": " ସ୍ନାନ",
    "2183": "ମ୍ଵୋଡିଆ",
    "2184": ".୬",
    "2185": " ଐ",
    "2186": " ପ୍ରତିଷ୍ଠା",
    "2187": "କଳା",
    "2188": "ଜ୍ଜ",
    "2189": " ଉଠ",
    "2190": "ପିତ",
    "2191": "ଦ୍ଧା",
    "2192": " ଶତାବ୍",
    "2193": " ଶତାବ୍ଦୀ",
    "2194": "ୂନ୍ୟ",
    "2195": " ମହାନ",
    "2196": " ଏଞ୍ଜ",
    "2197": " ଇତିହା",
    "2198": " ମିଳିଥିଲା",
    "2199": " ପଡି",
    "2200": "୧୯୭",
    "2201": " କାଠ",
    "2202": " ନିମ୍ନ",
    "2203": " ମନ୍ଦିରକୁ",
    "2204": " ଗ୍",
    "2205": " ପ୍ରସ୍ତର",
    "2206": " ଶୋ",
    "2207": "ନିର୍ମାଣ",
    "2208": "ରୂ",
    "2209": "୨୦",
    "2210": " ପରବର୍ତ୍ତୀ",
    "2211": " ବ୍ୟତୀତ",
    "2212": " ପାହା",
    "2213": "କରେ",
    "2214": "ୁକ୍ତ",
    "2215": " ତେଣୁ",
    "2216": "ମଧ୍ୟ",
    "2217": "ଭ୍",
    "2218": "ରମ",
    "2219": " ସେଣ୍ଟି",
    "2220": " ଶରୀର",
    "2221": " ନିଆ",
    "2222": " ବହୁଳ",
    "2223": " ରକ୍ଷଣ",
    "2224": " ଗଠନ",
    "2225": " ଲୁଣ",
    "2226": "ନ୍,",
    "2227": " ୨୦୧୨",
    "2228": " ସଂଖ୍ୟ",
    "2229": " ସଂଗ",
    "2230": "ଅତ୍ୟ",
    "2231": "ଅତ୍ୟଧିକ",
    "2232": " ଶାରୀରିକ",
    "2233": " ହାଇପର",
    "2234": "୫%",
    "2235": " ମାନଙ୍କ",
    "2236": " ବିରୁଦ୍ଧ",
    "2237": " ରହିଥିଲେ",
    "2238": "ସ୍ୟ",
    "2239": " ଆନ୍ତର୍ଜାତୀୟ",
    "2240": " ନାୟିକା",
    "2241": "ନେଟ",
    "2242": " ପୂର୍ଣ୍ଣିମା",
    "2243": "େତ",
    "2244": " କୃଷି",
    "2245": " ବିଜେ",
    "2246": " ହାତରେ",
    "2247": " ଦ୍ରାଘିମ",
    "2248": " ଦ୍ରାଘିମାରେ",
    "2249": " ଉଚ୍ଚତାରେ",
    "2250": " ସାକ୍ଷର",
    "2251": " ସାକ୍ଷରତା",
    "2252": " ହାରା",
    "2253": " ହାରାହାରି",
    "2254": "ଭୂମି",
    "2255": " ସୂଚନା",
    "2256": " ଘଣ୍ଟା",
    "2257": "ନେଟିକ",
    "2258": "ଯ୍ୟା",
    "2259": " ଶ୍ଵ",
    "2260": " ସ୍ତ୍ରୀ",
    "2261": " ମୂଳ",
    "2262": " ଜାତି",
    "2263": "ନ୍ତ୍ରଣ",
    "2264": " ଗୌ",
    "2265": " ଘଟି",
    "2266": " ପସ",
    "2267": " କଲେଜ",
    "2268": " ବ୍ୟବସାୟ",
    "2269": " ଇଞ୍ଜ",
    "2270": " ଯିଏ",
    "2271": " ଭାଗରେ",
    "2272": "୍ରମ",
    "2273": " କମ୍ପାନ",
    "2274": " କ୍ରୀ",
    "2275": "ଷ୍ଣ",
    "2276": "ତ୍ନୀ",
    "2277": " ରକ୍ଷା",
    "2278": "ଯାହା",
    "2279": " ଆଘାତ",
    "2280": " ବୁଝ",
    "2281": " ହଳ",
    "2282": "ୂର",
    "2283": "ମହା",
    "2284": "୫୭",
    "2285": "ଳିକ",
    "2286": " ଗ୍ରାମରେ",
    "2287": "କଟି",
    "2288": " ତାରି",
    "2289": " ରଚିତ",
    "2290": "ାଇମ",
    "2291": " ଫାଇ",
    "2292": " ମଳ",
    "2293": "ୁରୀ",
    "2294": " (ଇଂରାଜୀରେ",
    "2295": " କମିଯାଏ",
    "2296": " ଯଦି",
    "2297": "୍ୟୁଟ",
    "2298": " ଚର୍",
    "2299": "ମେଜି",
    "2300": " ରାସ୍",
    "2301": " ଦୃଷ୍ଟି",
    "2302": "ତ୍ରେ",
    "2303": " ସେବକ",
    "2304": " ଅକ୍ଷମତା",
    "2305": "ଏଣୁ",
    "2306": " ପ୍ରୟ",
    "2307": "ଟିକା",
    "2308": "ଅଙ୍କ",
    "2309": "ଜରା",
    "2310": "ଙ୍କୁଶକୃମି",
    "2311": " ଆଫ",
    "2312": "ୋଲ",
    "2313": " ଗତି",
    "2314": "ାଳାମୁ",
    "2315": "ାଳାମୁଖ",
    "2316": " ସଙ୍ଗେ",
    "2317": " ରନ",
    "2318": " ଅଧିନାୟକ",
    "2319": " ପ୍ରତିଯୋଗିତାରେ",
    "2320": " ନେତୃ",
    "2321": " ୱାଦେ",
    "2322": " ୱାଦେକର",
    "2323": " ଦିଅ",
    "2324": "ଅଞ୍ଜୁମ",
    "2325": " ଗୋଟେ",
    "2326": " ଟ୍ରିଗର",
    "2327": " ଚକ୍ରିକା",
    "2328": " ଅପରେଶନ୍",
    "2329": "ସ୍‍ଙ୍କୁ",
    "2330": "ସେକେଣ୍ଡ",
    "2331": " ପ୍ରାଥମିକ",
    "2332": " ମଧ୍ୟମ",
    "2333": " ଆକାରରେ",
    "2334": " ସାନ",
    "2335": "ତା,",
    "2336": "ପ୍ରଦ",
    "2337": " ବିଶ୍ୱାସ",
    "2338": " ସ୍ଥାପନ",
    "2339": "ପକ୍ଷ",
    "2340": " ଯୁଗ",
    "2341": " ବିଶ୍ଵାସ",
    "2342": "ନନ୍ଦ",
    "2343": "ାମୀ",
    "2344": " ସାମଗ୍ରୀ",
    "2345": " ସମସ୍ୟା",
    "2346": " ତଳେ",
    "2347": "ପଟେ",
    "2348": " କାମ୍ଵୋଡିଆ",
    "2349": "ମ୍ପୁ",
    "2350": " ସୂର୍ଯ୍ୟବର୍",
    "2351": " ବୌ",
    "2352": " ବୌଦ୍ଧ",
    "2353": " ଉତ୍ତମ",
    "2354": " ପରିଗଣ",
    "2355": " ପରିଗଣିତ",
    "2356": " ଦୃଶ୍ୟ",
    "2357": " ପର୍ବତ",
    "2358": " ଚିତ୍ରଶାଳା",
    "2359": " ଦିଗ",
    "2360": " କୈ",
    "2361": " ପ୍ରସିଦ୍ଧ",
    "2362": " ଆଧୁନିକ",
    "2363": " ପୁଣି",
    "2364": "ଥିରୁ",
    "2365": " ପ୍ରକୃତ",
    "2366": " ସମୟର",
    "2367": " ରାତିରେ",
    "2368": " ତ୍ରୟୋ",
    "2369": "‍ଙ୍କ",
    "2370": " ବିବେ",
    "2371": " ଜଣାପ",
    "2372": "ତାହା",
    "2373": "ବର୍ତ୍ତି",
    "2374": " ଭଗ୍",
    "2375": " ଜଙ୍ଗ",
    "2376": "ଫ୍ୟୁ",
    "2377": "ତ୍ସବ",
    "2378": "ସ୍ଥାର",
    "2379": " ବିଦେଶ",
    "2380": " ଏପରି",
    "2381": " ସମ୍ପର୍କୀୟ",
    "2382": "ସବୁ",
    "2383": " ଶାସନ",
    "2384": "ମୁଖ୍ୟ",
    "2385": "ଚେରୀ",
    "2386": " ତଳ",
    "2387": " ଦଣ୍ଡ",
    "2388": " ଦେଖି",
    "2389": " ଅଗ୍ର",
    "2390": " କରିଛି",
    "2391": "ଲୁକା",
    "2392": "ଢିବା",
    "2393": " ମାଂସପେଶୀ",
    "2394": "ଙ୍ଗୀ",
    "2395": " ମି.",
    "2396": " ମନୁ",
    "2397": " ମନୁଷ୍ୟ",
    "2398": " ପଟେ",
    "2399": " ସବୁଠାରୁ",
    "2400": " ସାମାନ୍ୟ",
    "2401": " ବାହ",
    "2402": " ରଖା",
    "2403": " ସେଥିରେ",
    "2404": "ବଣ",
    "2405": " ବାସୁ",
    "2406": " ଅତ୍ୟନ୍ତ",
    "2407": " ଖରା",
    "2408": " ଖରାପ",
    "2409": "ଟ୍ରି",
    "2410": "ଣ୍ଟ୍",
    "2411": " ଦାୟିତ୍",
    "2412": " କରିଦିଆ",
    "2413": "ହାୟ",
    "2414": "ଲୋଚନା",
    "2415": " ବିଭ",
    "2416": " ବୈଜ୍ଞାନିକ",
    "2417": " ସାର",
    "2418": " ଫି",
    "2419": "୨୦୦୧",
    "2420": " ସୁବିଧା",
    "2421": "ହୁରି",
    "2422": "ଷ୍କ",
    "2423": " ଭୂମିକା",
    "2424": " ଏସିଆ",
    "2425": " ବେମାରୀ",
    "2426": " ମାନସିକ",
    "2427": " ଧୀରେ",
    "2428": " ନେବା",
    "2429": " କାର",
    "2430": "ଟସ",
    "2431": " ହିସାବରେ",
    "2432": " ୱେ",
    "2433": " ଖୁବ",
    "2434": " ବିରୁଦ୍ଧରେ",
    "2435": " ନିର୍ଦ୍ଦେଶନାରେ",
    "2436": "ଭୂତି",
    "2437": " ଆଣି",
    "2438": "ଣ୍ଡରେ",
    "2439": "ଦିଅଁ",
    "2440": " ବୀର",
    "2441": " ପରୁଷ",
    "2442": " ମହାରାଷ୍ଟ୍ର",
    "2443": " ଆଠ",
    "2444": "ାଇଫ",
    "2445": "ଟୁ",
    "2446": " ତତ୍",
    "2447": "ଇନ",
    "2448": " ପ୍",
    "2449": " କ୍ଷମତା",
    "2450": " ପୀଡା",
    "2451": " ଅଣୁ",
    "2452": " ଜୀବା",
    "2453": " ମିଶ",
    "2454": " ପରିବାରରେ",
    "2455": "‌ଙ୍କ",
    "2456": " ରାଓଙ୍କ",
    "2457": "ର୍ଡ଼",
    "2458": " ସ୍କୁଲ",
    "2459": " ପାଠ",
    "2460": "ଣିଜ",
    "2461": "ଜିକ",
    "2462": " ସୁଯୋଗ",
    "2463": "ାଙ୍କ",
    "2464": " ମନ୍ତ",
    "2465": "ଙ୍ଗୁ",
    "2466": " ନିର୍ଦ୍ଦେଶିତ",
    "2467": " ଅନ୍ନ",
    "2468": " ତାର",
    "2469": " ଅଫ",
    "2470": " ବିଶ୍ୱବିଦ୍ୟାଳୟ",
    "2471": " ସୁଭ",
    "2472": "ଜାନ",
    "2473": " ଇଣ୍ଡ",
    "2474": "ମାଇ",
    "2475": "ଲସ୍",
    "2476": " ଏଭଳି",
    "2477": " ମଣି",
    "2478": " ବାହାରେ",
    "2479": " କ୍ୟା",
    "2480": "ଜ୍ଞା",
    "2481": "ବାଣୀ",
    "2482": " ସ୍ତରରେ",
    "2483": " ତାହାକୁ",
    "2484": " କେବେ",
    "2485": "ର୍ଷି",
    "2486": "ବିଷ୍ୟ",
    "2487": " ଚନ୍ଦନ",
    "2488": "ସ୍ତି",
    "2489": " ଘରେ",
    "2490": "ଙ୍କି",
    "2491": "ଲିଅ",
    "2492": " ହର",
    "2493": "ସ୍ରାବ",
    "2494": " ପଞ୍ଜ",
    "2495": "ପ୍ରଭୁ",
    "2496": " \"ଅ",
    "2497": " ମାଟିରେ",
    "2498": "ବ୍ରତ",
    "2499": " ଝାଡ଼ା",
    "2500": " କ୍ରନିକ",
    "2501": "ମେଜିଙ୍ଗ",
    "2502": " ସ୍କ",
    "2503": " ଯଥା:",
    "2504": "କ୍ଷମ",
    "2505": "ବିଜୟ",
    "2506": " ପାଖକୁ",
    "2507": "ସ୍ତାର",
    "2508": "ବୟ",
    "2509": " କାରଣରୁ",
    "2510": " ତେବେ",
    "2511": " ନ୍ୟାୟାଳୟ",
    "2512": " ଆବେ",
    "2513": " ଦ୍ୱିତୀୟ",
    "2514": "ମ୍ଫା",
    "2515": " ଆସେ",
    "2516": "ଦୟ",
    "2517": "ଅଚ୍ୟୁତାନନ୍ଦ",
    "2518": "ୌପ",
    "2519": " ଟ୍ରଫି",
    "2520": "ଅଜିତ",
    "2521": "ଜାତିକ",
    "2522": " ୱିକେଟ",
    "2523": " ମେଚ",
    "2524": " ଅଲିମ୍ପିକ୍",
    "2525": " ସିରି",
    "2526": " ନିର୍ବାଚିତ",
    "2527": "କିସ୍ତାନ",
    "2528": " ଗଣ୍ଠି",
    "2529": " ଲୋକଙ୍କର",
    "2530": " ହାଡ଼",
    "2531": " ବିହୀନ",
    "2532": " ମୂତ୍ରାଶୟ",
    "2533": "ଡ଼ିଅମ",
    "2534": " ଜିଉ",
    "2535": "ଅରା",
    "2536": " ଅଧିସେକେଣ୍ଡ",
    "2537": " ଅନନ୍ତଙ୍କ",
    "2538": " ସ୍ଵତନ୍ତ୍ର",
    "2539": "କାଳରେ",
    "2540": " ବ୍ଲକ",
    "2541": " କି.ମି.",
    "2542": " ପ୍ରତିବର୍ଷ",
    "2543": " ହୋଇଥାନ୍ତି",
    "2544": "ଁଳା",
    "2545": "ଓଡ଼ିଶ",
    "2546": " କୋଳି",
    "2547": " ଶିରା",
    "2548": " ମିଶ୍ରିତ",
    "2549": " ତୃ",
    "2550": "ୟଂ",
    "2551": " ପ୍ରତିଷ୍ଠିତ",
    "2552": "ମୂର୍ତ୍ତି",
    "2553": " ନବ",
    "2554": "ଟିକୁ",
    "2555": " ଦେବାକୁ",
    "2556": " ଅସୁ",
    "2557": "ତିକି",
    "2558": " କାର୍",
    "2559": " ପ୍ରଦ",
    "2560": "ଚିଆ",
    "2561": " ବର୍ଗ",
    "2562": "ମନଙ୍କ",
    "2563": "ମେର",
    "2564": " ମନ୍ଦିରମାନଙ୍କ",
    "2565": " ସଂର",
    "2566": "କ୍ଷିତ",
    "2567": " ପତା",
    "2568": " ଆକର୍ଷଣ",
    "2569": " ତାହାର",
    "2570": " ଚତୁର୍",
    "2571": " ପ୍ରାଙ୍ଗ",
    "2572": "ାନୁସାରେ",
    "2573": " ୱାଟ୍‍",
    "2574": " ବ୍ୟବହ",
    "2575": " ବ୍ୟବହୃତ",
    "2576": " ଦେବଙ୍କ",
    "2577": " ଆଦେଶ",
    "2578": " ଲେଖିଛନ୍ତି",
    "2579": " ଅନୁପ",
    "2580": " ମୃତ୍ୟ",
    "2581": " ୱାଟ୍‍ର",
    "2582": "ବର୍ତ୍ତିତ",
    "2583": " ଆଜି",
    "2584": " ନଥିଲେ",
    "2585": "ଜଣେ",
    "2586": " କରିପାରେ",
    "2587": " ଯାତ୍ରା",
    "2588": " ଆସନ",
    "2589": "ଯାଇଥିବା",
    "2590": "ମୟ",
    "2591": " ବିପରୀ",
    "2592": " ବିପରୀତ",
    "2593": "ତେଣୁ",
    "2594": " ବାଧା",
    "2595": "ତ୍ତର",
    "2596": " ୦",
    "2597": " ପାର୍ଶ୍ଵରେ",
    "2598": " ପାଚେରୀ",
    "2599": " ଉଦ୍ଦେଶ",
    "2600": "କଙ୍କ",
    "2601": " ପ୍ରତିକ୍ରିୟା",
    "2602": "ସାରି",
    "2603": " ଫୁଲ",
    "2604": "ପ୍‍",
    "2605": " ୩୩",
    "2606": " ଫୁଟ୍",
    "2607": "ପଶ୍ଚିମ",
    "2608": "ସ୍ଥାରେ",
    "2609": " ରହିଛନ୍ତି",
    "2610": " ତୋ",
    "2611": "ପାରିବେ",
    "2612": " କ୍ଷୟ",
    "2613": " ଆଲ",
    "2614": "ଗାର",
    "2615": "ସିଂହ",
    "2616": " ପଛ",
    "2617": " ଅନ୍ତର୍ଭ",
    "2618": " ଅନ୍ତର୍ଭୁକ୍ତ",
    "2619": " ସୋପାନ",
    "2620": "ଟାଇ",
    "2621": "ପ୍ରଥମ",
    "2622": "ାବ୍ୟ",
    "2623": "କ୍ଷେତ୍ର",
    "2624": " ସଂଘ",
    "2625": "୬ରୁ",
    "2626": "-୧",
    "2627": "୧୦",
    "2628": "ତିହାସିକ",
    "2629": " କ୍ଷତି",
    "2630": " ଖୁ",
    "2631": " ଗବେଷଣା",
    "2632": "୧୯୮",
    "2633": " ସହାୟ",
    "2634": "ଗ୍ରସ୍ତ",
    "2635": " ସଫଳତା",
    "2636": " ଅବସ୍ଥାରେ",
    "2637": " ଫଳରେ",
    "2638": " ଜମି",
    "2639": " ଯାଇଛି",
    "2640": " ପର୍ଯ୍ୟଟନ",
    "2641": "କ୍ରମ",
    "2642": " ଖର୍ଚ୍ଚ",
    "2643": " ପ୍ରଚାର",
    "2644": " ଆହୁରି",
    "2645": " ଲୋକଙ୍କ",
    "2646": " ଉତ୍ତାପ",
    "2647": "ମ,",
    "2648": "ଡୋ",
    "2649": "ଥେଷ୍ଟ",
    "2650": "ନ୍ତର",
    "2651": "ଟିନ",
    "2652": " ସନ",
    "2653": " ବ୍ୟାୟାମ",
    "2654": "ଉଁଶ",
    "2655": "ାଳନା",
    "2656": "ପ୍ଟେ",
    "2657": " ପୂର୍ବତନ",
    "2658": " ବିପକ୍ଷରେ",
    "2659": "ଚଳଚ୍ଚିତ୍ର",
    "2660": " ଶୁଭ",
    "2661": "ାମା",
    "2662": "ଣ୍ଟରନେଟ",
    "2663": " ମୁଭି",
    "2664": " ଡାଟ",
    "2665": " ଡାଟାବେ",
    "2666": " ଡାଟାବେସରେ",
    "2667": " ଅଗି",
    "2668": "ର୍ବ",
    "2669": " ବାଇ",
    "2670": " ଦେହରେ",
    "2671": "ସାମ",
    "2672": " ପୌର",
    "2673": "୬%",
    "2674": "୪%",
    "2675": " ନିକଟ",
    "2676": "ସେନ",
    "2677": " ଷ୍ଟେ",
    "2678": " ରହିଥାଏ",
    "2679": "ିକାର",
    "2680": " ଶୋଇ",
    "2681": "‌କ",
    "2682": " ଜେନେଟିକ",
    "2683": "ଙ୍ଖ",
    "2684": "ପୀ",
    "2685": " ପ୍ରତିଷେଧ",
    "2686": " ଦେଶମାନଙ୍କରେ",
    "2687": " ହଜାର",
    "2688": ",୦୦୦",
    "2689": "ବିଧ",
    "2690": " ପ୍ରଜାତି",
    "2691": " ଅଷ୍ଟ୍ରେ",
    "2692": " ଅଷ୍ଟ୍ରେଲିଆ",
    "2693": " ଡାଇ",
    "2694": "ାଇଡ",
    "2695": "ଜୀବୀ",
    "2696": " ବେଦ",
    "2697": " ନିୟନ୍ତ୍ରଣ",
    "2698": " ୭୨",
    "2699": " ଉପସ୍ଥିତି",
    "2700": " ସାମନ୍ତା",
    "2701": "ଚୈତନ୍ୟ",
    "2702": " ପସନ୍ଦ",
    "2703": "ୁଥିଲେ",
    "2704": " ଲେଖିଥିଲେ",
    "2705": "ଲୋଚକ",
    "2706": " ସାଜି",
    "2707": " ଘୋଷ",
    "2708": " ଆମେରି",
    "2709": " ଏମ୍",
    "2710": " ବାପା",
    "2711": " ମଧୁ",
    "2712": "ଦାସ",
    "2713": "ତ୍ମକ",
    "2714": " ପତ୍ନୀ",
    "2715": "ସିଙ୍ଗ",
    "2716": "ଯାଆନ୍ତି",
    "2717": " ଖାଲି",
    "2718": " ବେଶୀ",
    "2719": "୧ତମ",
    "2720": "ଅକ୍ଷରା",
    "2721": " ହାସନ",
    "2722": "ଏବେ",
    "2723": " ଜନ୍ମିତ",
    "2724": " ଜଣାଶୁ",
    "2725": " ଜଣାଶୁଣା",
    "2726": "ଷକ",
    "2727": "ସେଠାରେ",
    "2728": " ଦାନ",
    "2729": "ଡିତ",
    "2730": " ଭବିଷ୍ୟ",
    "2731": " ଶ୍ରୀଜୀ",
    "2732": " ଶ୍ରୀଜୀଉ",
    "2733": "ଉଳ",
    "2734": " ଧାରାବାହ",
    "2735": " ଧାରାବାହିକ",
    "2736": " ଯାଏଁ",
    "2737": "\"ର",
    "2738": " ନାଟ୍ୟ",
    "2739": "ମଣ୍ଡ",
    "2740": " ଦିଏ",
    "2741": "ତ୍ତ୍ୱ",
    "2742": " ପକ୍ଷ",
    "2743": " ଯଶୋ",
    "2744": " ସୁଭଦ୍ରା",
    "2745": "ଜୀବନ",
    "2746": " ଚିନ୍ତା",
    "2747": " ସାହିତ୍ୟର",
    "2748": "ଅଗ",
    "2749": " ବଢ଼",
    "2750": "ରଣର",
    "2751": "ପୁରା",
    "2752": "ାଇବା",
    "2753": " ଏଞ୍ଜାଇମ",
    "2754": " ବାନ୍ତି",
    "2755": "୍ରପାନ",
    "2756": "ଉଣ୍ଡ",
    "2757": " ଓକାଳ",
    "2758": " ହୋଇଯାଏ",
    "2759": "କ୍ରନିକ",
    "2760": " ଚର୍ବି",
    "2761": " କନ୍ୟା",
    "2762": " ଠିକ",
    "2763": " ପରିସ୍ଥିତି",
    "2764": " ଅଗ୍ନିମିତ୍ର",
    "2765": " ଆଗ୍",
    "2766": " ଗ୍ରନ୍ଥ",
    "2767": "ଶରୀ",
    "2768": " ରୋଗୀର",
    "2769": " ଏରି",
    "2770": " ଅକ୍ଷମ",
    "2771": " ପ୍ରୟୋଗ",
    "2772": " ଉନ୍ନତି",
    "2773": " ପ୍ରାବଧାନ",
    "2774": " ଗିର",
    "2775": " ଗିରଫ",
    "2776": " ଆବେଦନ",
    "2777": " ରିପୋର୍ଟ",
    "2778": "ୁବନେ",
    "2779": "୍‌",
    "2780": "ୟାର୍",
    "2781": "ସାଧାରଣତଃ",
    "2782": " ସପ୍ତାହରୁ",
    "2783": " ଡାକ୍ତ",
    "2784": "ିରା",
    "2785": " ଆରା",
    "2786": "ାଳାମୁଖୀ",
    "2787": "ଅଙ୍ଗୁର",
    "2788": " ଆୟତନ",
    "2789": " ହେବାର",
    "2790": " ପତ୍ରିକା",
    "2791": " ବଳରାମ",
    "2792": "େନିଆ",
    "2793": " ପ୍ରତିନିଧିତ୍ଵ",
    "2794": " ଅଜିତ",
    "2795": " ପଞ୍ଜାବ",
    "2796": " ଇନ",
    "2797": "ମ୍ବେ",
    "2798": " ରୌପ",
    "2799": " ରୌପ୍ୟ",
    "2800": " ଅଟନ୍ତି।",
    "2801": " ଷ୍ଟା",
    "2802": " ରାଇଫ",
    "2803": " ଭାଙ୍ଗି",
    "2804": "ବାଜପେୟୀ",
    "2805": " ଅଟାରୀ",
    "2806": "ୀମ",
    "2807": " ପାଏ",
    "2808": " ସୁଗନ୍ଧି",
    "2809": " ସୋଡ଼ିଅମ",
    "2810": " ହାଇପରନା",
    "2811": "ଟ୍ରେମିଆ",
    "2812": "ମ୍ୱଦନ୍ତୀ",
    "2813": "ଲାଉ",
    "2814": " ପ୍ୟ",
    "2815": " ପ୍ୟାରି",
    "2816": " ଦିଅନ୍ତୁ",
    "2817": "ଅଦିତି",
    "2818": "ଅଧକପାଳି",
    "2819": " ସେକେଣ୍ଡ",
    "2820": " ଯୋଡା",
    "2821": " ପ୍ରଣ",
    "2822": "ବିଶେଷ",
    "2823": " ମିଶି",
    "2824": " ସଦର",
    "2825": " ମହକୁ",
    "2826": " ମହକୁମା",
    "2827": " ଚିହ୍ନଟ",
    "2828": "ିକା,",
    "2829": "ପ୍ତି",
    "2830": " ଅମ୍ଳ",
    "2831": "ାତୁ",
    "2832": " ତିନୋଟି",
    "2833": " ବ୍ରହ୍",
    "2834": "କର୍ମ",
    "2835": "ଧ୍ୟାନ",
    "2836": " ଉଚିତ",
    "2837": " ପ୍ରାଣୀ",
    "2838": "ର୍ଗ",
    "2839": " ମାସର",
    "2840": " ଇଚ୍ଛା",
    "2841": "ମ୍ବଦନ୍ତୀ",
    "2842": " ଦିନେ",
    "2843": "ସ୍ତରେ",
    "2844": " ପତି",
    "2845": "ାଇଲେ",
    "2846": " ସେମାନଙ୍କୁ",
    "2847": " କାମ୍ପୁ",
    "2848": " କାମ୍ପୁଚିଆ",
    "2849": " ଲେଖା",
    "2850": "ବଂଶ",
    "2851": " ସୂର୍ଯ୍ୟବର୍ମନଙ୍କ",
    "2852": " ପରିଣ",
    "2853": " ପାରମ୍ପ",
    "2854": " କଳାର",
    "2855": " ଢା",
    "2856": " ଗ୍ୟା",
    "2857": " ପ୍ରାଙ୍ଗଣ",
    "2858": " ପୌରାଣିକ",
    "2859": "କ୍ୟ",
    "2860": "ଦିଏ",
    "2861": " ନଗ",
    "2862": "ଫୁ",
    "2863": "ାସା",
    "2864": "ାବ୍",
    "2865": "୫୦",
    "2866": "ଥାଇ",
    "2867": " ରାଜାଙ୍କ",
    "2868": " ମୃତ୍ୟୁର",
    "2869": " ବାୟୋ",
    "2870": "ନାବ",
    "2871": " ସମ୍ଭବ",
    "2872": " କଳ୍ପ",
    "2873": " ଦର୍ଶନ",
    "2874": " କରିବ",
    "2875": " ଯେତେବେଳେ",
    "2876": " ଇତିହାସ",
    "2877": "ୀକାର",
    "2878": "ଲ୍ୟା",
    "2879": "କୈ",
    "2880": "ଉଥିବା",
    "2881": " ଦର୍ଶା",
    "2882": "ଦେଶର",
    "2883": "ପାରୁ",
    "2884": "ଡିର",
    "2885": " ବିଧି",
    "2886": "ହମ",
    "2887": " ଉଦ୍ଦେଶ୍ୟରେ",
    "2888": " ପରିବେଶ",
    "2889": "ରୂପ",
    "2890": "କ୍ଷକ",
    "2891": "ଷ୍ଟିକ",
    "2892": "ଢା",
    "2893": " ୮୦",
    "2894": " ପୋଲ",
    "2895": " ଗୋପୁର",
    "2896": " ଭିତର",
    "2897": " ପଥ",
    "2898": " ଅଞ୍ଚଳ",
    "2899": "କାରଣ",
    "2900": "ୋଜିତ",
    "2901": "ଖିତ",
    "2902": "ମେରୁ",
    "2903": " ତା’",
    "2904": " କୋଣ",
    "2905": " ୯୨",
    "2906": "ସାଗର",
    "2907": "ରାୟଣ",
    "2908": "ତାବି",
    "2909": " ଅଧିକାରୀ",
    "2910": " ୧୯୯୨",
    "2911": " ବିଭାଗ",
    "2912": " ସ୍ଥଳ",
    "2913": " ଜୋ",
    "2914": "ଅନେକ",
    "2915": " ୨୦୧୩ରେ",
    "2916": " କୀ",
    "2917": "ନୈ",
    "2918": "ନୈତିକ",
    "2919": " ପ୍ରଭାବିତ",
    "2920": "ବାୟୁ",
    "2921": " ସଭ୍ୟ",
    "2922": " ଏଥିରେ",
    "2923": " ହୃ",
    "2924": "ମାତ୍ରା",
    "2925": " ଯଥେଷ୍ଟ",
    "2926": " କମେ",
    "2927": "ରାଷ୍ଟ୍ର",
    "2928": " ଆମେରିକାରେ",
    "2929": " ବର୍ଷକୁ",
    "2930": " ଉର୍ଦ୍ଧ",
    "2931": "ଧର",
    "2932": "ମେନ",
    "2933": " ୱେଷ୍ଟ",
    "2934": " ଇଣ୍ଡି",
    "2935": " ଦଳରେ",
    "2936": " ଉତ୍ସବରେ",
    "2937": " ବଙ୍ଗ",
    "2938": "ନାଟ୍ୟ",
    "2939": " ମହାନ୍ତି,",
    "2940": "ଇଁ",
    "2941": " ଖାଇଲେ",
    "2942": "ପାଦନ",
    "2943": " ଲୋକମାନେ",
    "2944": " ସେମାନଙ୍କର",
    "2945": "ଆର",
    "2946": "ଲେଶ୍ଵର",
    "2947": "ୋଳ",
    "2948": " ପାଣିରେ",
    "2949": "ଅଉରଙ୍ଗାବାଦ",
    "2950": "୯%",
    "2951": ".୮",
    "2952": "୮%",
    "2953": "ନିମ୍ନ",
    "2954": "ଳାଭୂମି",
    "2955": " କ୍ଷୁଦ୍ର",
    "2956": " ଷ୍ଟେସନ",
    "2957": " ରେଳ",
    "2958": " ଅଟୋ",
    "2959": " ଚାପ",
    "2960": " ଯୌ",
    "2961": " ଶାଖା",
    "2962": " ଲମ୍ବ",
    "2963": " ବୀ",
    "2964": " ସିସ୍",
    "2965": " ଗୁଡିକୁ",
    "2966": "ାସ,",
    "2967": "ସିନୋ",
    "2968": "ିବାର",
    "2969": "ସିସ",
    "2970": "ପ୍ଟ",
    "2971": " ଦୁଃ",
    "2972": "ାଇଁ",
    "2973": " ୭୭",
    "2974": "ବାଦୀ",
    "2975": " ଏଇ",
    "2976": " ହେଇଥିଲେ",
    "2977": " ଗୌତମ",
    "2978": "ୀତା",
    "2979": "ମ୍‌ରେ",
    "2980": "କ୍କା",
    "2981": "ଡ଼ୁ",
    "2982": "ଚ୍ଛେ",
    "2983": "ଚ୍ଛେଦ",
    "2984": " ସ୍ନାତକ",
    "2985": " ଛାତ୍ର",
    "2986": "ିନିୟ",
    "2987": " ହତ୍ୟା",
    "2988": " ରାଜନୀ",
    "2989": "ଅକ୍ଟୋ",
    "2990": " ସ‌ହକାରୀ",
    "2991": " ଭର",
    "2992": " ମାଲିକ",
    "2993": "ଖ୍ୟାତ",
    "2994": "ାରାୟଣ",
    "2995": "ିକେ",
    "2996": "ିତାଭ",
    "2997": " ଟି",
    "2998": "କୂ",
    "2999": " ରାଷ୍ଟ୍ରୀୟ",
    "3000": "ଚରଣ",
    "3001": " ଗୋଳ",
    "3002": "୪ତମ",
    "3003": "୫ତମ)",
    "3004": "୩ତମ",
    "3005": "୪ତମ)",
    "3006": "ୋଗ୍ରା",
    "3007": "ଦିକ",
    "3008": " ପରିମାଣ",
    "3009": "ସ୍ଥାନର",
    "3010": " ଲେଖକ",
    "3011": " କହିଲେ",
    "3012": " ଖଣ୍ଡ",
    "3013": " ଋଷି",
    "3014": "ଶ୍ରୀମନ୍ଦିର",
    "3015": "ଲମ୍ବ",
    "3016": " ଚତୁର୍ଦ୍",
    "3017": " ଚତୁର୍ଦ୍ଦଶୀ",
    "3018": "ମୁଣ୍ଡ",
    "3019": " ମହାବିଦ୍ୟାଳୟରୁ",
    "3020": " ଆଇନ",
    "3021": " ଆକାଶ",
    "3022": " ପୁରୁଣା",
    "3023": "ରାଜା",
    "3024": " ପ୍ରି",
    "3025": " ଜରା",
    "3026": " ରକ୍ତସ୍ରାବ",
    "3027": " ପାର୍ଶ୍ୱ",
    "3028": " କରେ,",
    "3029": " ଡଲାର",
    "3030": "ଷ୍ଣବ",
    "3031": " ମହାପ୍ରଭୁ",
    "3032": " ୬୦",
    "3033": " ପ୍ରସାଦ",
    "3034": "ଭଦ୍ର",
    "3035": " ଅନ୍ଧ",
    "3036": " ବଢ଼ିଥାଏ",
    "3037": "ପଥ",
    "3038": " ଧରଣର",
    "3039": " ମୋଟା",
    "3040": " ଅଗଷ୍ଟସ",
    "3041": " ଖ୍ରୀଷ୍ଟ",
    "3042": "୍ରୁ",
    "3043": " ଛେ",
    "3044": " ୨୦୦୦",
    "3045": "ଭର୍",
    "3046": "ଅଗ୍ନାଶୟ",
    "3047": "ଗର୍ଭ",
    "3048": " ପାକ",
    "3049": " ଆକ୍ୟୁଟ",
    "3050": "ିକାଲ",
    "3051": " ଇମେଜିଙ୍ଗ",
    "3052": "ଡ଼ିତ",
    "3053": "ନୀତ",
    "3054": " ସକ୍ଷମ",
    "3055": " ଦୀନ",
    "3056": "ରଣା",
    "3057": " ବିଦ",
    "3058": " ପାଚନ",
    "3059": " ସଂତ୍ଵର",
    "3060": " ଅଥ",
    "3061": " ପ୍ରତିରୋଧ",
    "3062": "ନ୍ତ୍ରିକ",
    "3063": "ମେଣ୍ଟ",
    "3064": " ଅଗ୍ରୀ",
    "3065": " ଅଗ୍ରୀମ",
    "3066": "ବାରେ",
    "3067": " ପରିସର",
    "3068": " ଦିଅନ୍ତି",
    "3069": " ତରଫ",
    "3070": " ତରଫରୁ",
    "3071": " ଗୁଜରା",
    "3072": "ଅଙ୍କିତା",
    "3073": " ଜୁଲାଇ",
    "3074": "ମିର",
    "3075": " କାମୁ",
    "3076": " ସ୍ଟେ",
    "3077": " ବିସ୍ତାର",
    "3078": " ଶରୀ",
    "3079": " ଅଦ",
    "3080": " ନଦ",
    "3081": " ଅଙ୍ଗିରା",
    "3082": " ତପସ",
    "3083": " ପୁରାତନ",
    "3084": " ଜ୍ୱାଳାମୁଖୀ",
    "3085": "ରେ,",
    "3086": " ପ୍ରଦେଶର",
    "3087": " ପୁରୀ",
    "3088": "ଉପ",
    "3089": "ସଖା",
    "3090": "ଅନନ୍ତପୁର",
    "3091": "ହାଣେ",
    "3092": " ରଣଜୀ",
    "3093": " ମ୍ୟାଚରେ",
    "3094": " ନିଉଜି",
    "3095": " ନିଉଜିଲାଣ୍ଡ",
    "3096": " ଦିନିକ",
    "3097": " ଦିନିକିଆ",
    "3098": "ାଳୀ",
    "3099": " ଅନ୍ତର୍ଜାତିକ",
    "3100": " ଉପଯୋଗୀ",
    "3101": " ଭାରତକୁ",
    "3102": " ଯାଇଥିଲେ",
    "3103": " ସୀମା",
    "3104": "ଭାର",
    "3105": " ଘଟଣା",
    "3106": " ରୂପରେ",
    "3107": " ରାଇଫଲ୍",
    "3108": "ଅଟ",
    "3109": " ପତାକା",
    "3110": " ଜନତା",
    "3111": "ମ୍ମ୍ୟୁ",
    "3112": " ଅଠର",
    "3113": " ପବନ",
    "3114": "ଅଣସର",
    "3115": " ପଟି",
    "3116": " ହୁଏ।",
    "3117": " ଯନ୍ତ୍ରଣାରେ",
    "3118": "ସେଟ",
    "3119": "ବିମ୍ବ",
    "3120": "ସକ୍ରିୟ",
    "3121": "ଔଷଧ",
    "3122": "ଫ୍ୟୁମ",
    "3123": " ସୁଗନ୍ଧ",
    "3124": " ହାଇପରନାଟ୍ରେମିଆ",
    "3125": " ବୁଦ୍ଧି",
    "3126": " ଏଥେନ୍",
    "3127": "କ୍‌ନେ",
    "3128": " ଅରା",
    "3129": " ତ୍ରୟୋଦଶୀ",
    "3130": " ବ୍ୟଞ୍ଜନ",
    "3131": "ହାଣ୍ଡି",
    "3132": " ଅଛି।",
    "3133": "ଭିଦ",
    "3134": "ଓଡ଼ିଶାର",
    "3135": " ଅଁଳା",
    "3136": " (ଅ",
    "3137": "ନା,",
    "3138": " ଧାତୁ",
    "3139": " ନିବାର",
    "3140": "ଳାରେ",
    "3141": "ଲା,",
    "3142": " ଅମୃତ",
    "3143": " ଔଷଧୀୟ",
    "3144": " ୯୦",
    "3145": " ଦେଇଥିଲେ,",
    "3146": "ଳାର",
    "3147": " ପ୍ରତ୍ୟେକ",
    "3148": " ନିତ",
    "3149": " ଆନନ୍ଦ",
    "3150": " କିମ୍ବଦନ୍ତୀ",
    "3151": " ବନ",
    "3152": "ନିଜ",
    "3153": " ଅସୁବିଧା",
    "3154": " ତୁଳ",
    "3155": " ନାର",
    "3156": " ସ୍ଥିତ",
    "3157": " ଦ୍ଵା",
    "3158": " ଆଡ",
    "3159": " ପରିଣତ",
    "3160": "କୀୟ",
    "3161": "ମାନଙ୍କଦ୍ଵାରା",
    "3162": " ଶୈ",
    "3163": " ପରିବର୍ତ୍ତେ",
    "3164": " ଆସୁ",
    "3165": " ଦିଗକୁ",
    "3166": "କୋର",
    "3167": " ସମ୍ପର୍କରେ",
    "3168": "ାଇବାକୁ",
    "3169": "ଣୀର",
    "3170": "ଖୁ",
    "3171": "ନଗର",
    "3172": " ସଂସ୍କୃତ",
    "3173": " ଉଦ୍ଧ",
    "3174": "ରାହ",
    "3175": "ଏମ୍",
    "3176": " ଇନ୍ଦ୍ର",
    "3177": "ାନ୍",
    "3178": " ବିବେଚିତ",
    "3179": " ଶିଳାଲେଖ",
    "3180": " ତଥ",
    "3181": "ୁସାରେ",
    "3182": "ନ୍ଦୀ",
    "3183": " ପରିବର୍ତ୍ତିତ",
    "3184": " ସୁଦ୍ଧା",
    "3185": " ସମ୍ପୂର୍",
    "3186": "ନନ",
    "3187": " କହିଥିଲେ",
    "3188": " ଶିଳ୍ପୀ",
    "3189": " ସୁନ୍ଦର",
    "3190": " ସପ୍ତ",
    "3191": " ତୀର୍",
    "3192": " ତୀର୍ଥ",
    "3193": " ଅଧିବା",
    "3194": " ବସବାସ",
    "3195": " ମନେ",
    "3196": "ବିଂଶ",
    "3197": " ଖ୍ୟା",
    "3198": " କୃତି",
    "3199": " ଗୌର",
    "3200": " ଭ୍ରମଣ",
    "3201": "ାରିତ",
    "3202": "ବାବ",
    "3203": " ଦେବତାଙ୍କ",
    "3204": " ଲୋକଙ୍କୁ",
    "3205": " ଜର୍",
    "3206": "ସ୍ତୁ",
    "3207": "୍ୟ,",
    "3208": "ଉଭୟ",
    "3209": " କରୁଥିଲା",
    "3210": " ଉତ୍କ",
    "3211": " ଆବି",
    "3212": " ବାଲୁକା",
    "3213": " ଶୋଭା",
    "3214": "ସ୍ପ",
    "3215": " ୨୬",
    "3216": " (୬",
    "3217": " ଘେ",
    "3218": " ପ୍ରତିମୂର୍ତ୍ତି",
    "3219": "ଣାର",
    "3220": " ସଂଯ",
    "3221": " ଅନ୍ତଃ",
    "3222": " ଚାର",
    "3223": " କଳା,",
    "3224": " ବାମ",
    "3225": " ଚିତ୍ରିତ",
    "3226": "ଯାତ୍ରା",
    "3227": " କ୍ଷୀର",
    "3228": "ିଣା",
    "3229": " ପରାସ୍ତ",
    "3230": " ଶ୍ରୀକୃଷ୍ଣ",
    "3231": "ଗ୍ରାମ",
    "3232": " କୃଷ୍ଣଙ୍କ",
    "3233": " (୧୨",
    "3234": "କ୍ଷେ",
    "3235": " ପ୍ରାରମ୍ଭ",
    "3236": " କାମ୍ଵୋଡିଆର",
    "3237": " ଭୁ",
    "3238": " ନିର୍ଗତ",
    "3239": "ପର୍ଯ୍ୟ",
    "3240": " ଗଠିତ",
    "3241": " ରହିବା",
    "3242": " ପ୍ରସାର",
    "3243": " ଦିଆଯାଇ",
    "3244": " ରାଜନୈତିକ",
    "3245": " ଇଂରାଜୀ",
    "3246": "ସରୁ",
    "3247": " ଗରମ",
    "3248": " ଥଣ୍ଡା",
    "3249": " ଜଳରେ",
    "3250": " ଥିବାବେଳେ",
    "3251": "ବ୍ୟା",
    "3252": " ହ୍ରଦ",
    "3253": " ସେପ୍ଟେ",
    "3254": " ପ୍ରଶିକ୍ଷ",
    "3255": "ଟିଙ୍ଗ",
    "3256": "ଯାଉଥିଲା",
    "3257": " କଲିକ",
    "3258": " ଇଣ୍ଡିଜ",
    "3259": " ସଦସ୍ୟ",
    "3260": " ଦାସଙ୍କ",
    "3261": " କଟା",
    "3262": " ହେଲେ:",
    "3263": " ୨୦୧୫ରେ",
    "3264": "ଚନ୍ଦ୍ର",
    "3265": "କୁମାର",
    "3266": " ଶତ",
    "3267": "ଇଘ",
    "3268": "ଏଥି",
    "3269": " କମାର",
    "3270": " ଶାଳ",
    "3271": " ନାନା",
    "3272": " ସମର୍",
    "3273": " ଯାଇଥିବା",
    "3274": " ଠାକୁର",
    "3275": "ଗୃହ",
    "3276": " ନିଆଁ",
    "3277": " ଭାରତରେ",
    "3278": " ପୌରପାଳ",
    "3279": " ପୌରପାଳିକା",
    "3280": "୨%",
    "3281": " ମହାରାଷ୍ଟ୍ରର",
    "3282": " ୭୫",
    "3283": " ୧୦୦୦",
    "3284": " ବାର୍ଷିକ",
    "3285": " ତାପ",
    "3286": ".୯",
    "3287": " ବେଳାଭୂମି",
    "3288": "ାନି",
    "3289": " ବର୍ଷରୁ",
    "3290": " ଏସ.ଆଇ.ଡି.",
    "3291": "ଭାବିକ",
    "3292": " ବିଶ",
    "3293": " ପିଠି",
    "3294": "ଶାଳୀ",
    "3295": " ଉପାୟ",
    "3296": " ଆସିବା",
    "3297": " ମଞ୍ଜ",
    "3298": "ର୍ଘ",
    "3299": " ଆହ",
    "3300": " କ୍ରମେ",
    "3301": "ଏଡ",
    "3302": " ମାର",
    "3303": "ଅସ",
    "3304": "ଏବଂ",
    "3305": " ଜୀବାଣୁ",
    "3306": " କଣ୍ଠଦାନ",
    "3307": " ୪୨",
    "3308": " ରହନ୍ତି",
    "3309": "ଅକ୍କିନେନି",
    "3310": " ଚୈତନ୍ୟଙ୍କ",
    "3311": " ଲଭ୍",
    "3312": " ନାଗାର୍ଜୁନଙ୍କ",
    "3313": "ନ୍ନାଇ",
    "3314": " ଦଗୁ",
    "3315": " ଜଗତର",
    "3316": "ନାଇ",
    "3317": "ୋଜକ",
    "3318": "ଦ୍ରାବାଦ",
    "3319": " ଫେରି",
    "3320": " ପଦ୍ଧ",
    "3321": "‌ହୁ",
    "3322": " ଜାନ",
    "3323": " ଟୁ",
    "3324": " ଲେଖିଥିଲେ:",
    "3325": " ଦରକାର",
    "3326": " ସାଜିଥିଲେ",
    "3327": " ପଢ଼ି",
    "3328": "'ର",
    "3329": "ଂରେ",
    "3330": " ସମୀ",
    "3331": " ଶୀ",
    "3332": " ପାଇଥିଲା",
    "3333": "ପକ",
    "3334": " କମ୍ପାନୀର",
    "3335": " ହୋଇଯାଇ",
    "3336": "ଦେବୀ",
    "3337": " ଚଳଚ୍ଚିତ୍ରଟିର",
    "3338": "ୋନି",
    "3339": " ଇଣ୍ଡିଆ",
    "3340": " ବିନା",
    "3341": "ଦୁଇ",
    "3342": " ଗଭ",
    "3343": " ଗଭୀର",
    "3344": " ସବୁଠୁ",
    "3345": "େଜ",
    "3346": "ାର୍କ",
    "3347": " ସଞ୍ଚ",
    "3348": " ଗ୍ରେ",
    "3349": "୫ତମ",
    "3350": "୬ତମ)",
    "3351": "୬ତମ",
    "3352": "୭ତମ)",
    "3353": "୭ତମ",
    "3354": "୮ତମ)",
    "3355": "୮ତମ",
    "3356": "୨ତମ)",
    "3357": "୨ତମ",
    "3358": "୩ତମ)",
    "3359": " ୩୧",
    "3360": " ଟାଇପ",
    "3361": " ବିନ୍ଦୁ",
    "3362": "କାମ",
    "3363": " ଭଉଣୀ",
    "3364": " କହନ୍ତି",
    "3365": "ଲାଲ",
    "3366": "ବୈ",
    "3367": " ତୃତୀୟା",
    "3368": " ସିଦ୍ଧ",
    "3369": " ଶଙ୍ଖ",
    "3370": " ଏହିପରି",
    "3371": " ଜୀବନରେ",
    "3372": "ତାଙ୍କୁ",
    "3373": "ଜ,",
    "3374": " ଶ୍ରୀକ୍ଷେତ୍ର",
    "3375": "ସ୍ନାନ",
    "3376": " ଜାରି",
    "3377": " ମୁଁ",
    "3378": " ଗାୟ",
    "3379": " ଭଜନ",
    "3380": "ପଡ଼ା",
    "3381": "ୀତି",
    "3382": "ଯାନ",
    "3383": " ଦେଇଛନ୍ତି",
    "3384": " ପୁସ୍ତ",
    "3385": "ପିଲା",
    "3386": " ଥି",
    "3387": " (ଇଂରାଜୀ:",
    "3388": " ମୌଳିକ",
    "3389": " ପରମା",
    "3390": " ପରମାଣୁ",
    "3391": "ଜୋ",
    "3392": " ସ୍ଵା",
    "3393": " ହେଉଥିଲେ",
    "3394": " ଯାହାଦ୍ୱାରା",
    "3395": "ଂଘା",
    "3396": "ଂଘାତିକ",
    "3397": " ସ୍ୱାସ୍ଥ",
    "3398": " ସ୍ୱାସ୍ଥ୍ୟ",
    "3399": "ଟମ",
    "3400": " ବୈଷ୍ଣବ",
    "3401": " ହୋଇଗଲେ",
    "3402": " ମିଶାଇ",
    "3403": " ଆଶ୍ର",
    "3404": "ୟିକ",
    "3405": "ଚୟ",
    "3406": " ବିର",
    "3407": " ଗଛର",
    "3408": " ତ‌",
    "3409": "ଗୁଡ଼ିକୁ",
    "3410": " ତ୍ରି",
    "3411": " ରାଜ୍ୟର",
    "3412": " ଆତ୍ମ",
    "3413": "ଡର",
    "3414": " ଦାୟିତ୍ୱ",
    "3415": " ମନ୍ତ୍ରୀ",
    "3416": " ଯନ୍ତ୍ରଣା,",
    "3417": "କୋଷ",
    "3418": " ଡାଏବେ",
    "3419": " ଡାଏବେଟିସ",
    "3420": " ରୋଗକୁ",
    "3421": "ରାପି",
    "3422": " ନିର୍ଭର",
    "3423": "ଶିତ",
    "3424": " ପାଚକ",
    "3425": " ସିଧା",
    "3426": "ଲମ୍ବନ",
    "3427": " ଧୂମ",
    "3428": "ବେଦ",
    "3429": "ଞ୍ଚା",
    "3430": " ଚୋ",
    "3431": "ତ୍ରୁ",
    "3432": " ସଂଳା",
    "3433": " ଟଙ୍କା",
    "3434": " ରାସ୍ତା",
    "3435": "ଅଗ୍ନ୍ୟାଶୟ",
    "3436": " ସଂତ୍ଵରକ",
    "3437": "ଦ୍ବାରା",
    "3438": "ୁର୍ଣ୍ଣ",
    "3439": " ଲାଗିବା",
    "3440": " ଯାଇଥାଏ",
    "3441": " ସର୍ବଦା",
    "3442": "ଟେଡ",
    "3443": " ବିଚାର",
    "3444": " ଜଡିତ",
    "3445": " ସଂକ୍ର",
    "3446": " ଆକ୍ର",
    "3447": " ଆମେରିକା",
    "3448": " ଆଫ୍ର",
    "3449": " ବହୁତ",
    "3450": "ୟୁତ",
    "3451": " କାଶ",
    "3452": " ରଙ୍ଗର",
    "3453": " ସମାନ",
    "3454": "ଲିନ",
    "3455": " ଚିହ୍",
    "3456": " ଦୁର୍ବଳ",
    "3457": " ଡାକ୍ତର",
    "3458": " ମହର୍ଷି",
    "3459": " ତପସ୍ୟା",
    "3460": " ବିସ୍",
    "3461": " ବିସ୍ଫ",
    "3462": "ାର୍ଥୀ",
    "3463": " କର୍ଣ୍ଣା",
    "3464": " କର୍ଣ୍ଣାଟକ",
    "3465": "ଚିନ୍ତା",
    "3466": " କୁମାରୀ",
    "3467": " ହେବାପରେ",
    "3468": "ଅଠର",
    "3469": " ଦିନରୁ",
    "3470": " ତାରିଖରେ",
    "3471": " ଥିବାରୁ",
    "3472": " ପଞ୍ଚସଖା",
    "3473": " ମିଳୁ",
    "3474": "ସେତେବେଳେ",
    "3475": "ଚୁ",
    "3476": " ଆପେ",
    "3477": " ଜୁନ",
    "3478": " ସମଗ୍ର",
    "3479": " ପୃଥିବୀର",
    "3480": " ଋପେ",
    "3481": " ଅପ୍ରେ",
    "3482": " ପଦକ",
    "3483": " ପ୍ରତିଯୋଗିତା",
    "3484": " ବମ୍ବେ",
    "3485": "ଲିପ",
    "3486": " ୱି",
    "3487": " ନେତା",
    "3488": "ଗାଓ",
    "3489": "ଗାଓଁ",
    "3490": " ୟୁନି",
    "3491": "ଚର",
    "3492": "ଅଜୟଗଡ",
    "3493": "ନ୍ଦେ",
    "3494": " ଶର୍ମା",
    "3495": " ବନ୍ଧୁକ",
    "3496": " ଜିତିଥିଲେ",
    "3497": " ଅଟଳ",
    "3498": " ଯୋଜନାରେ",
    "3499": "ଭୋ",
    "3500": " ୨୦୧୪",
    "3501": "ପରାୟଣ",
    "3502": " ଘାଟ",
    "3503": " ପଣା",
    "3504": " ପାରା",
    "3505": " ପାରାସେଟ",
    "3506": " ପାରାସେଟାମ",
    "3507": "ୟବିକ",
    "3508": " କୈ।",
    "3509": " ପରଫ୍ୟୁମ",
    "3510": "ତାବିରା",
    "3511": " ଗୁଳ୍",
    "3512": " ହର୍ମି",
    "3513": " ଆଗ୍ଲାଉ",
    "3514": " ଆଗ୍ଲାଉଲସ୍",
    "3515": " ଅଥୀନାଙ୍କ",
    "3516": "ସ୍କର୍ଯ୍ୟ",
    "3517": " ମିଗ୍ରେନ",
    "3518": " ଅକ୍ଷର",
    "3519": " ଗାଆଁଟି",
    "3520": "ଗୋଟିଏ",
    "3521": " ଉଦ୍ଭିଦ",
    "3522": " ସର୍ବତ୍ର",
    "3523": " ଲୋକେ",
    "3524": "ଳା,",
    "3525": " ମଧୁର",
    "3526": "କ୍ଷୁ",
    "3527": "ତ,",
    "3528": " ପିତ୍ତ",
    "3529": " ଶ୍",
    "3530": "କ୍ଷୟ",
    "3531": "ର୍ଣ୍ଣ,",
    "3532": " ଅଟେ।",
    "3533": "ଶାସ୍ତ୍ର",
    "3534": " ବ୍ରହ୍ମା",
    "3535": " ଆଦ",
    "3536": " ପ୍ରସ",
    "3537": " ଧ୍ୟାନ",
    "3538": " ବିଧ",
    "3539": " ପକ୍ଷରେ",
    "3540": " ନବମୀ",
    "3541": " ସଂସ୍କୃତି",
    "3542": "ଶ୍ଵାସ",
    "3543": " ଦ୍ରବ୍ୟ",
    "3544": " ଭୂମି",
    "3545": " ପାର୍ବତୀ",
    "3546": " ପ୍ରିୟ",
    "3547": "ଅର୍",
    "3548": " କିପରି",
    "3549": " ଶୁଣି",
    "3550": " ଚାରିପଟେ",
    "3551": " ଧାର୍",
    "3552": " ଧାର୍ମିକ",
    "3553": "ହିନ୍ଦୁ",
    "3554": "ରାର",
    "3555": " ଅଞ୍ଚଳର",
    "3556": " ପାଲ",
    "3557": " କାମ୍ପୁଚିଆର",
    "3558": " ପ୍ରତୀ",
    "3559": " ପ୍ରତୀକ",
    "3560": "ଭାବେ",
    "3561": "କାରେ",
    "3562": "ଶାଳାର",
    "3563": " ଆୟତା",
    "3564": " ଆୟତାକାର",
    "3565": "ଦ୍ଵାର",
    "3566": "ହାଁ",
    "3567": " ମନ୍ଦିରଠାରୁ",
    "3568": "ସୁର",
    "3569": ".୪",
    "3570": " ଆଖ",
    "3571": "ସମସ୍ତ",
    "3572": " ସେଇ",
    "3573": "ଖ୍ରୀଷ୍ଟ",
    "3574": "୧୩",
    "3575": " ଅର୍ଥା",
    "3576": " କରାଯାଉଥିଲା",
    "3577": " ସମ୍ପର୍କିତ",
    "3578": " ଅନୁପସ୍ଥିତି",
    "3579": " ହୋଇଥିବାର",
    "3580": "ଦ୍ଵିତୀୟ",
    "3581": " ସମ୍ପୂର୍ଣ୍ଣ",
    "3582": " ହୋଇନାହିଁ",
    "3583": "ାବୁ",
    "3584": " ମାଡି",
    "3585": "ବାସୀ",
    "3586": " କଳାକୃତି",
    "3587": "ଜ୍ଜା",
    "3588": "୧୭",
    "3589": " ପୂର୍ବେ",
    "3590": " ଅନୁଶୀଳ",
    "3591": " ଜିତ",
    "3592": " ଉଦ୍ୟ",
    "3593": " ମୁହ",
    "3594": "ବରଣ",
    "3595": " ୱାଟ୍‍କୁ",
    "3596": " ସାମ୍",
    "3597": " ରୋମା",
    "3598": " ଆଶା",
    "3599": "ପରବର୍ତ୍ତୀ",
    "3600": " ସଫା",
    "3601": " ଅଂକୋର୍‍ର",
    "3602": " ନିମ୍",
    "3603": " ଲୁଗା",
    "3604": "ଟାର",
    "3605": " ଶତାବ୍ଦୀରେ",
    "3606": " ସଂରକ୍ଷଣ",
    "3607": " ମାଟି",
    "3608": "ସ୍ଥାୟୀ",
    "3609": "ରିକୀୟ",
    "3610": "ଏତ",
    "3611": " ସୈ",
    "3612": " ଗୁଳି",
    "3613": " ହୋଇଯାଇଛି",
    "3614": "କୈନ୍ଦ୍ର",
    "3615": "କୈନ୍ଦ୍ରିକ",
    "3616": " ପର୍ବତର",
    "3617": "ସ୍ତର",
    "3618": " ଗବେଷକ",
    "3619": " ପରିଚାଳ",
    "3620": "ତ୍ନତ",
    "3621": " ହୋଇଥିବାରୁ",
    "3622": " ପୋଷଣ",
    "3623": "ନାର",
    "3624": " କରିଥିବାରୁ",
    "3625": " ଆସ୍ଥାନ",
    "3626": "ଷ୍କାର",
    "3627": " ହୋଇସାରି",
    "3628": "ମାଙ୍କ",
    "3629": " ବାନ୍ଧି",
    "3630": "କୃତିକ",
    "3631": " ଉପାଦାନ",
    "3632": " ଛାତ",
    "3633": "ଗୁଣ",
    "3634": "ବାହିତ",
    "3635": " ଶିଖ",
    "3636": " ×",
    "3637": "ପ୍ରଥମେ",
    "3638": " ଚିତ୍ରଶାଳାର",
    "3639": " ସଂଯୁକ୍ତ",
    "3640": "ପୁରର",
    "3641": " କରିପାରିବେ",
    "3642": " ନୃତ",
    "3643": "ୃଶ",
    "3644": " ଓହ୍",
    "3645": " ଓହ୍ଲାଇ",
    "3646": " ପାହାଚ",
    "3647": " ପାଠା",
    "3648": " ବିରା",
    "3649": " ସ୍ଥାନେ",
    "3650": " ଭିତ୍",
    "3651": " ଯେ,",
    "3652": "ଣ୍ଡାର",
    "3653": "୧୪",
    "3654": " ପ୍ରାୟତଃ",
    "3655": " ଲିଖିତ",
    "3656": "ଲୁଆ",
    "3657": " ଧନ",
    "3658": "୩୪",
    "3659": " ପ୍ରଦର୍ଶ",
    "3660": "ଡାଇ",
    "3661": " ଅଜ",
    "3662": " ସେଣ୍ଟିମିଟର",
    "3663": " ଇଞ୍ଚ",
    "3664": "୩୭",
    "3665": " ଐତିହାସିକ",
    "3666": " ବିଭାଗର",
    "3667": " ଯତ୍ନ",
    "3668": "ଏଣ୍ଟ୍",
    "3669": "େସନ୍",
    "3670": "‍ରେ",
    "3671": " ସହାୟତା",
    "3672": " ରାସାୟ",
    "3673": " ରାସାୟନିକ",
    "3674": " ଅଭିଯୋଗ",
    "3675": " ସମାଲୋଚନା",
    "3676": " ୨୦୦୪",
    "3677": " କାର୍ଯ୍ୟର",
    "3678": " ବିଭକ୍ତ",
    "3679": " ରକ୍ଷଣାବେ",
    "3680": " ରକ୍ଷଣାବେକ୍ଷଣ",
    "3681": " ଅପସ",
    "3682": " ଅପସରା",
    "3683": " ପ୍ରଚଳ",
    "3684": "କ୍ଷାରେ",
    "3685": " ପ୍ରକଳ୍ପ",
    "3686": " କରୁଛି",
    "3687": " ଯାହାକୁ",
    "3688": "ପୁନ",
    "3689": " ବେଳେ,",
    "3690": " ଯୋଗାଇ",
    "3691": " ଉଦ୍ଦିଷ୍ଟ",
    "3692": "ତଳ",
    "3693": " ବଦଳି",
    "3694": " ହେତୁ",
    "3695": " ନିଷ୍ପ",
    "3696": " ନିଷ୍ପତ୍ତି",
    "3697": "ଅଂଶ",
    "3698": " ଲାଲ",
    "3699": " ଜ୍ୱର",
    "3700": " ରହିବାକୁ",
    "3701": " କମେଇବା",
    "3702": " ଶିରାଭ୍ୟ",
    "3703": "ଯୁକ୍ତରାଷ୍ଟ୍ର",
    "3704": " ୨୦୧୫",
    "3705": "କ୍ଟର",
    "3706": " ବାଉଁଶ",
    "3707": " ରହିଅଛି",
    "3708": " ନୌ",
    "3709": " ଚାଳନା",
    "3710": " ମାଛ",
    "3711": " ୧୯୫",
    "3712": " ରକ୍ଷଣଶୀଳ",
    "3713": " ଶୁଣା",
    "3714": " ବୋଲର",
    "3715": "ସେଥିପାଇଁ",
    "3716": " ଖେଳରେ",
    "3717": " ୬୭",
    "3718": " ମିନି",
    "3719": " ଧରା",
    "3720": "’ରେ",
    "3721": "ଲ୍ଲିକ",
    "3722": " ଚିତ୍ରନାଟ୍ୟ",
    "3723": " ଦୁଇଜଣ",
    "3724": " କଳାକାରମାନେ",
    "3725": "ଶିଳ୍ପୀ",
    "3726": "ଇଣ୍ଟରନେଟ",
    "3727": "ଇଘରା",
    "3728": " ସଂଯୋଗ",
    "3729": " କରିଥାଆନ୍ତି",
    "3730": " ଉତ୍ପାଦନ",
    "3731": " ଗୃହକୁ",
    "3732": " ବାହୁ",
    "3733": " କଲାବେଳେ",
    "3734": " ଲଗ",
    "3735": "ମହାରା",
    "3736": " ଔର",
    "3737": " ୩୫",
    "3738": " ତାପମାତ୍ରା",
    "3739": " ଠାରେ",
    "3740": " ମାଲ",
    "3741": "ପାରନ୍ତି",
    "3742": " ଗାର୍",
    "3743": " ଋତୁ",
    "3744": " ହେଇଥାଏ",
    "3745": "ଣ୍ଡ୍ରୋ",
    "3746": " ଜଣାଯାଇ",
    "3747": " ଶିକାର",
    "3748": " ସମ୍ବନ୍ଧୀୟ",
    "3749": " କଡ଼",
    "3750": "ମୋଟ",
    "3751": " ଶ୍ୱ",
    "3752": " ଟା",
    "3753": "ଅବ",
    "3754": "ପୃଥିବ",
    "3755": "ଆମେରିକାରେ",
    "3756": "କାର,",
    "3757": "ପୁଷ୍ପ",
    "3758": "ପୂ",
    "3759": " ଗୁଡିକରେ",
    "3760": " ପ୍ରତ",
    "3761": " କନ୍ଦ",
    "3762": "ବାଇ",
    "3763": " ଆରୋଗ",
    "3764": " ଆରୋଗ୍ୟ",
    "3765": " ଚେର",
    "3766": " ବେଦନା",
    "3767": "ଲିସ",
    "3768": " ପ୍ରବାହ",
    "3769": "ରୁଣ",
    "3770": " ରାୟ",
    "3771": "ଅକୋ",
    "3772": " କିମି",
    "3773": " (୨",
    "3774": " ତଥ୍ୟ",
    "3775": "ସେଥିରେ",
    "3776": "(ଜନ୍ମ",
    "3777": " ମୁଖ୍ୟତଃ",
    "3778": " ୨୦୦୯ରେ",
    "3779": " ‌ମନ",
    "3780": " ଜେଜେ",
    "3781": " ୨୦୧୪ରେ",
    "3782": " ଚେନ୍ନାଇ",
    "3783": " ବିଚ୍ଛେଦ",
    "3784": " ଅଖିଳ",
    "3785": " ସ୍କୁଲରେ",
    "3786": " ପଢ଼",
    "3787": "ବୋ",
    "3788": "ଉଥିଲେ",
    "3789": "ଳୟ",
    "3790": " ହାଇଦ୍ରାବାଦ",
    "3791": " ବାଣିଜ",
    "3792": "ମାସ",
    "3793": "ସ୍‌ରେ",
    "3794": " ପଦ୍ଧତି",
    "3795": " ଜାନୁଆ",
    "3796": " ଜାନୁଆରୀ",
    "3797": " ସାମା",
    "3798": " ସାମାଜିକ",
    "3799": " ଦକ୍ଷୀ",
    "3800": " ଦକ୍ଷୀଣ",
    "3801": " ସ‌ହିତ",
    "3802": " ରୂପ",
    "3803": " ସୁଧ",
    "3804": " ଚଳଚ୍ଚିତ୍ରର",
    "3805": "ଭାଇ",
    "3806": " କରିଥିଲେ,",
    "3807": " ଜୀବନର",
    "3808": " ଆଗକୁ",
    "3809": " ମେକ",
    "3810": " ଅପରା",
    "3811": " ଉପସ୍ଥା",
    "3812": " ନନ୍ଦ",
    "3813": " ଥରେ",
    "3814": " ମନୋର",
    "3815": " ଆନି",
    "3816": " ଭେଙ୍କ",
    "3817": " ରତ୍ନ",
    "3818": "ଅର",
    "3819": " କଲେଜରେ",
    "3820": "ଲେଜ",
    "3821": "ଷ୍ଟର",
    "3822": "ାର୍ଜୁ",
    "3823": "ସୂ",
    "3824": " ପରେ,",
    "3825": "ଷ୍ଣା",
    "3826": " ରାଜନୀତି",
    "3827": " ପ୍ରଭ",
    "3828": " ପ୍ରଭୃତି",
    "3829": " କରିବେ",
    "3830": " ସମ୍ମାନିତ",
    "3831": " ସାରା",
    "3832": " ଆତ",
    "3833": " ଜାଗ",
    "3834": "ଯାଉଥିବା",
    "3835": " ସହଜରେ",
    "3836": " ନୀଳ",
    "3837": "ଧାରୀ",
    "3838": " ଭୟ",
    "3839": " ମଣିଷ",
    "3840": "କ୍ଟୋ",
    "3841": "୯ତମ)",
    "3842": "୯ତମ",
    "3843": "୦ତମ)",
    "3844": "୦ତମ",
    "3845": "୧ତମ)",
    "3846": " ୩୦୦",
    "3847": "ρα",
    "3848": " ଅକ୍ଷରା",
    "3849": " ବାଙ୍ଗା",
    "3850": " ବାଙ୍ଗାଲୋ",
    "3851": " ଉକ୍ତ",
    "3852": " ଅନୁବାଦ",
    "3853": " ଶୁଭାରମ୍ଭ",
    "3854": " ଜଳଦାନ",
    "3855": " ଚମ",
    "3856": " ନଥିଲା",
    "3857": " ତୃଷ",
    "3858": " ତୃଷାର୍",
    "3859": " ତୃଷାର୍ତ୍ତ",
    "3860": " ଜଳଭ",
    "3861": "ିକ୍ଷା",
    "3862": " ନିଷ୍ଠ",
    "3863": "ମଦ",
    "3864": "ତୃତୀୟ",
    "3865": "ଭୋଗ",
    "3866": "ନେୟ",
    "3867": "ଶ୍ରୀମନ୍ଦିରରେ",
    "3868": " ସମ୍ପା",
    "3869": " ବିଶ୍ଵକ",
    "3870": "ହିତା",
    "3871": " ପ୍ରଶାସ",
    "3872": "ଷ୍କର",
    "3873": " ଚୁ",
    "3874": "ପିକ",
    "3875": "ଲ୍ଲୀ",
    "3876": " କେନ୍ଦ",
    "3877": " କେନ୍ଦ୍ରା",
    "3878": " କେନ୍ଦ୍ରାପଡ଼ା",
    "3879": "ଙ୍କଠାରୁ",
    "3880": " ପାସ",
    "3881": "କିରି",
    "3882": " ସାତ",
    "3883": "୭ରେ",
    "3884": " ଯୁବ",
    "3885": "ମଳ",
    "3886": " ମୋହନ",
    "3887": " ସେନା",
    "3888": " କଲି",
    "3889": "ଏଟ",
    "3890": "ଧୀନ",
    "3891": "େକସନ",
    "3892": " ଜରାୟୁ",
    "3893": "୨ରେ",
    "3894": " ମାର୍",
    "3895": " ଦ୍ୱା",
    "3896": " ଯଶୋଦା",
    "3897": "ମିତି",
    "3898": " ଲୀ",
    "3899": " ଆଶ୍ରମରେ",
    "3900": " ଶହ",
    "3901": " ୫୦ରୁ",
    "3902": "ଲି,",
    "3903": " ପ୍ରସ୍ତୁତି",
    "3904": "ଅଖିଳ",
    "3905": "ର୍ଦ୍ଧା",
    "3906": "ସ୍କୁ",
    "3907": "ଶେ",
    "3908": " କଲେଜରୁ",
    "3909": " ସାହିତ୍ୟିକ",
    "3910": " ଏକାଡେମୀ",
    "3911": "ଷାଢ଼",
    "3912": " ଚିର",
    "3913": " ତ‌ଥା",
    "3914": "ଭାବରେ",
    "3915": " ଶାସକ",
    "3916": "ଧିକାରୀ",
    "3917": " ସବୁଜ",
    "3918": "ଡ଼କୁ",
    "3919": " ଲାଇ",
    "3920": "ସିସ୍",
    "3921": " ଏସି",
    "3922": " ନିରା",
    "3923": " ହଜମ",
    "3924": " ନିଉରୋ",
    "3925": " ଥାଏ,",
    "3926": "ୁମ୍ରପାନ",
    "3927": " ଥେ",
    "3928": " ସାହାଯ୍ୟରେ",
    "3929": "ଟିଭ",
    "3930": " ବଞ୍ଚନ୍ତି",
    "3931": " ପାଞ୍ଚ",
    "3932": "ରକ୍ତ",
    "3933": " ସିଟି",
    "3934": " ସ୍କାନ",
    "3935": " ଆଣ୍ଟି",
    "3936": "ଳିକା",
    "3937": "ଗ୍ନି",
    "3938": " ମିଥ",
    "3939": " ମାଧ",
    "3940": " ଆଲୋକ",
    "3941": "ଦୀନ",
    "3942": "ୌହ",
    "3943": "ନାଥଙ୍କ",
    "3944": " ଜାଣି",
    "3945": " ପାରନ୍ତି",
    "3946": " ପିତାଙ୍କ",
    "3947": "କାନ୍ତ",
    "3948": " ସଂଳାପ",
    "3949": "ତ୍ତମ",
    "3950": "ହର",
    "3951": " ଶ୍ରୁ",
    "3952": " ଶ୍ରୁଙ୍ଗ",
    "3953": " ଜେନ",
    "3954": " ମହାରାଜା",
    "3955": " ଯଜ୍ଞ",
    "3956": " ସିଂ",
    "3957": " ନାଶ",
    "3958": "ହେବା",
    "3959": " ରସ",
    "3960": " ଦୁର୍ଗ",
    "3961": "ଖାନ",
    "3962": " ଧୋଇ",
    "3963": "ସଦ",
    "3964": " ବ୍ୟଥା",
    "3965": " ଅଥବା",
    "3966": " ଅକ୍ଷମତାର",
    "3967": "ୟାତ୍ମକ",
    "3968": " ମଳରେ",
    "3969": "ବୀକ୍ଷଣ",
    "3970": "ଟାମିନ",
    "3971": " ରୋକି",
    "3972": " ଅଙ୍ଗୁର",
    "3973": "ଦାରୀ",
    "3974": "ନୀୟ",
    "3975": "ଭାରତର",
    "3976": " ଯୋଗ୍ୟ",
    "3977": "ଲେ,",
    "3978": "ସେମାନେ",
    "3979": "ଲ୍ସ",
    "3980": " ବିଭାଗରେ",
    "3981": " ପେଶା",
    "3982": " ରେକ",
    "3983": " ରେକର୍ଡ",
    "3984": "ନୋଲୋ",
    "3985": " ଭୁବନେ",
    "3986": " ଟ୍ରେ",
    "3987": "ଅଙ୍କୁଶକୃମି",
    "3988": " ଆକ୍ରାନ୍ତ",
    "3989": " ଥକ୍କା",
    "3990": " ଅଙ୍କୁଶକୃମି",
    "3991": "ଙ୍କିଲୋ",
    "3992": "ସ୍ଟୋ",
    "3993": "୍ୟବ",
    "3994": "୍ୟାନ",
    "3995": " ବ୍ରି",
    "3996": "ତ୍ୟାଗ",
    "3997": " ନିୟୁତ",
    "3998": "ଟିନ୍",
    "3999": " ମଝ",
    "4000": " ମଝି",
    "4001": " ନାହିଁ,",
    "4002": "କ୍ୟୁ",
    "4003": " ପତ",
    "4004": "ପାଖ",
    "4005": " ଅନ୍ଧତ୍ୱ",
    "4006": " ଭୋ",
    "4007": " ନାମିତ",
    "4008": " ନଦୀର",
    "4009": " ତିନିଠାକୁର",
    "4010": " ପାଉଛନ୍ତି",
    "4011": " ବିଗ୍ରହ",
    "4012": "ଜ୍ୱ",
    "4013": " କ୍ଷେତ୍ରର",
    "4014": "ମ୍ବରରେ",
    "4015": " ବିସ୍ଫୋଟ",
    "4016": " ଯାଇଥିଲା",
    "4017": "ବହୁ",
    "4018": " ପେନ୍",
    "4019": " /",
    "4020": "ଟିଶ",
    "4021": " ଅଭୟ",
    "4022": " ସ୍ଥାପିତ",
    "4023": " ୫୧",
    "4024": " ପହଣ୍ଡ",
    "4025": " ଯାଆନ୍ତି",
    "4026": " ଗଜ",
    "4027": "ୱାନ",
    "4028": " ସନ୍ତାନ",
    "4029": "ସାହିତ୍ୟ",
    "4030": "ଧର୍ମ",
    "4031": " ପାଇଁ,",
    "4032": "କର୍",
    "4033": " ଏପ୍ର",
    "4034": " ଏପ୍ରିଲ",
    "4035": " ପିତ",
    "4036": " ମାଳ",
    "4037": " ଶୂ",
    "4038": "ାବତୀ",
    "4039": "ନ୍ତେ",
    "4040": " ଶିଷ୍ୟ",
    "4041": " ଶୂନ୍ୟ",
    "4042": "ଅଛ",
    "4043": " ଇଉ",
    "4044": " ଯୁଗରେ",
    "4045": "ଲିୟ",
    "4046": " ଅବସାଦ",
    "4047": "୨୦୧୭",
    "4048": " ଡିଜି",
    "4049": " ସମ୍ପତ୍ତି",
    "4050": "ଫଳରେ",
    "4051": "ପକ୍ଷରେ",
    "4052": "ୋପ",
    "4053": " ମୁମ୍ବାଇର",
    "4054": " ୧୯୯୯",
    "4055": "ଢୀ",
    "4056": "ପୁରୁଣା",
    "4057": " ଅପ୍ରେଲ",
    "4058": " ଅର୍ଜୁନ",
    "4059": " ଅଲିମ୍ପିକ୍‌",
    "4060": " ନିଯୁକ୍ତ",
    "4061": " ପଦ୍ମଶ୍ରୀ",
    "4062": " ଖେଳୁଥିଲେ",
    "4063": " ୧୯୭୪",
    "4064": " ଜିତିଥିଲା",
    "4065": "ୱେ",
    "4066": " ନେତୃତ୍ଵ",
    "4067": "ଯୋଗ୍ୟ",
    "4068": " ମନୋନୀତ",
    "4069": "ଏସ୍",
    "4070": " ତୈଳ",
    "4071": " ଷ୍ଟାଣ୍ଡ",
    "4072": " ଇଂଜ",
    "4073": " ବେକ",
    "4074": " ଅଜୟ",
    "4075": " ଜିନ୍",
    "4076": " ଭଗ୍ନ",
    "4077": "ଅଞ୍ଜନା",
    "4078": "ତ୍ରେତ",
    "4079": " ତତ୍କାଳୀନ",
    "4080": "ଅଞ୍ଜଳି",
    "4081": "ୋଳି",
    "4082": "ାଙ୍କନ",
    "4083": "୯୯",
    "4084": "୪୦୦",
    "4085": " ଫେବୃ",
    "4086": " ଫେବୃଆ",
    "4087": " ଫେବୃଆରୀ",
    "4088": " ପାଆନ୍ତି",
    "4089": " ବିରୋଧ",
    "4090": "୧୯୯୯",
    "4091": " ବାଜପେୟୀଙ୍କ",
    "4092": " ପାର୍ଟି",
    "4093": "ୱିତ",
    "4094": " ବିମାନ",
    "4095": " ପାକିସ୍ତାନ",
    "4096": " ସୀମାନ୍ତ",
    "4097": "ପରାୟଣତା",
    "4098": " ଭଲକରି",
    "4099": " କ୍ଵ",
    "4100": "ୋଇମ୍ମ୍ୟୁ",
    "4101": "ମେଟ",
    "4102": "ନଳା",
    "4103": " ନଳା",
    "4104": " ଗଙ୍ଗ",
    "4105": "ଡ଼ାଣା",
    "4106": " ରାଗ",
    "4107": " ଅଦିତିଙ୍କ",
    "4108": " ଭୃ",
    "4109": " ଦଇ",
    "4110": " ଦଇତା",
    "4111": " ପଟିଦିଅଁ",
    "4112": " ବାସୁଦେବ",
    "4113": "ନ୍ତ୍ରଣା",
    "4114": " ଅନିର୍",
    "4115": " ମାନି",
    "4116": " ଲାଗେ,",
    "4117": " ପ୍ରତିବିମ୍ବ",
    "4118": " ସ୍ନାୟବିକ",
    "4119": " ଶତକଡା",
    "4120": " ସଠିକ",
    "4121": " ବରଗଡ଼",
    "4122": " ଗୁଳ୍ମ",
    "4123": " କିମ୍ୱଦନ୍ତୀ",
    "4124": " ଗ୍ରୀକ୍",
    "4125": "ବ୍ୟଥା",
    "4126": " ହେରା",
    "4127": " ଭ‍",
    "4128": " ଭ‍ଉଣୀ",
    "4129": "ଦୃଷ୍ଟି",
    "4130": " ଏଥେନ୍ସ",
    "4131": " ଓଡେ",
    "4132": " ପ୍ୟାରିସ୍‍ଙ୍କ",
    "4133": " ଆରାକ୍‌ନେ",
    "4134": " ହେଙ୍ଗୁ",
    "4135": " ଧକ୍",
    "4136": "ପ୍ଟାନ",
    "4137": ":୫୯",
    "4138": " ଅନଙ୍ଗଭ",
    "4139": " ଅନଙ୍ଗଭୀମ",
    "4140": " ଅବଧ",
    "4141": " ଅବଧୂତ",
    "4142": "ଥିତ",
    "4143": " ହୋଇଅଛି",
    "4144": "ପାଟଣା",
    "4145": "ଭାରତରେ",
    "4146": " ଉଚ୍ଚତା",
    "4147": "ଞ୍ଚଳରେ",
    "4148": "କା,",
    "4149": " ଚକ୍ଷୁ",
    "4150": "ମେହ",
    "4151": "ୋଷ,",
    "4152": " ପୀଡ଼ା",
    "4153": " ନିବାରକ",
    "4154": "ବଙ୍ଗ",
    "4155": "ସଂସ୍କ",
    "4156": "ିକୁ",
    "4157": " କରାଯାଏ।",
    "4158": " ପେଟର",
    "4159": " ଗୁଣ",
    "4160": " କୁହାଯାଇଛି",
    "4161": "ଭଗ",
    "4162": "ଭଗବା",
    "4163": " କାମନା",
    "4164": " ସାରି",
    "4165": " ପ୍ରତିମାକୁ",
    "4166": " ଅବତାର",
    "4167": " କହିଛନ୍ତି",
    "4168": " ସ୍ୱର୍ଗ",
    "4169": " ପ୍ରାପ୍ତି",
    "4170": " ଶୁକ୍ଳପକ୍ଷ",
    "4171": "ଗଛ",
    "4172": "ହେଲା",
    "4173": " ଅନୁଯାୟୀ,",
    "4174": "ପାଠ",
    "4175": " ଲାଗିଲେ",
    "4176": " ସମାଧାନ",
    "4177": "ଠିକ୍",
    "4178": "ମ୍ପରା",
    "4179": " ଏହିଦିନ",
    "4180": " ଅଂ",
    "4181": " ମିଟର୍",
    "4182": " ବିଶ୍ଵର",
    "4183": " ଆଡକୁ",
    "4184": "୍ରାଜ",
    "4185": " ରାଜକୀୟ",
    "4186": " ଅନୁସ",
    "4187": " ସମୟରୁ",
    "4188": " ପାରମ୍ପରିକ",
    "4189": "ଶ୍ରେ",
    "4190": "ବର୍ତ୍ତମାନ",
    "4191": " ପର୍ଯ୍ୟଟକଙ୍କ",
    "4192": " ଢାଞ୍ଚ",
    "4193": " ଢାଞ୍ଚାରେ",
    "4194": "ପାର୍",
    "4195": "ଣର",
    "4196": " କେନ୍ଦ୍ରରେ",
    "4197": " ବିଶେଷତା",
    "4198": " କରିବା,",
    "4199": " ମନ୍ଥ",
    "4200": "”ର",
    "4201": "ପତ୍ତି",
    "4202": "ସାମ୍",
    "4203": "ପ୍ରତିକ",
    "4204": " ରିପ୍",
    "4205": " ସହରରେ",
    "4206": " ଲୋକକଥା",
    "4207": " ମେଲେ",
    "4208": " ସ୍ଥାନୀୟ",
    "4209": "ାବ୍ଦ",
    "4210": " ରାଜୁତି",
    "4211": " କଣ",
    "4212": " ହୋଇଥାଇ",
    "4213": " ଶିଳାଚିତ୍ର",
    "4214": " ଅର୍ଦ୍ଧ",
    "4215": "ସମା",
    "4216": "ଶ୍ଚର୍ଯ୍ୟ",
    "4217": " ପରଠାରୁ",
    "4218": "ଶୂନ୍ୟ",
    "4219": " ଅନାବ",
    "4220": " ସାଜ",
    "4221": " ଅନୁଶୀଳନ",
    "4222": " ଜାପାନ",
    "4223": "ତ୍ରୀମାନେ",
    "4224": " ଅଧିବାସୀ",
    "4225": " କଥ",
    "4226": "ନବିଂଶ",
    "4227": "ଭାଗରେ",
    "4228": " ଫରା",
    "4229": " ଅନ୍",
    "4230": "ାବଳୀ",
    "4231": " କରାଇଥିଲେ",
    "4232": "ୌଣସି",
    "4233": " ସାକ୍ଷ",
    "4234": " ବିଦେଶୀ",
    "4235": "ନଥିଲେ",
    "4236": " ଶୈଳୀ",
    "4237": " ଉପରକୁ",
    "4238": " ୪୫",
    "4239": "ଉତ୍ତର",
    "4240": " ସ୍ଥିତି",
    "4241": " ଜଳା",
    "4242": " କରିପାରୁ",
    "4243": " ଦଣ୍ଡାୟ",
    "4244": " ଦଣ୍ଡାୟମାନ",
    "4245": "ଲେଜ୍",
    "4246": "ଧୀ",
    "4247": " ପରିଚାଳିତ",
    "4248": "ତ୍ନତତ୍ତ୍ଵ",
    "4249": "ନ୍ନିକା",
    "4250": " ଶିଳ୍ପ",
    "4251": " ଗାଥା",
    "4252": "ପୁଞ୍ଜ",
    "4253": " ସୂକ୍ଷ୍",
    "4254": " ସୂକ୍ଷ୍ମ",
    "4255": " କେଉଁ",
    "4256": " ପ୍ରାକୃତିକ",
    "4257": " ସନ୍ତୁ",
    "4258": "ଣିର",
    "4259": "ପଦ୍ମ",
    "4260": "ା,",
    "4261": "ସରା",
    "4262": " ସୁନା",
    "4263": "ବାହାର",
    "4264": ")ର",
    "4265": " ଫୁଟ୍)",
    "4266": "ଟରୁ",
    "4267": "ବିଶିଷ୍ଟ",
    "4268": "ପ୍ରତ୍ୟେକ",
    "4269": "ଦକ୍ଷ",
    "4270": " ଏକଦା",
    "4271": "ହସ୍ତ",
    "4272": " ନଗର",
    "4273": " ସାହି",
    "4274": " ଛାଡିଦେଲେ",
    "4275": " ସଦୃଶ",
    "4276": " ପାଠାଗାର",
    "4277": " ପୋଖ",
    "4278": " ପୋଖରୀ",
    "4279": " ନକ",
    "4280": " ବାହ୍ୟ",
    "4281": " ଦିଆଯାଇଛି",
    "4282": "ଦେବତା",
    "4283": "ସାଧ୍ୟ",
    "4284": " ୬୫",
    "4285": " ଚାରୋଟି",
    "4286": " ଭର୍",
    "4287": " ସମ୍ମି",
    "4288": "ସମ୍ପ",
    "4289": " ସର୍ବୋ",
    "4290": "ୃଷ୍ଟ",
    "4291": " ବର୍ଣ୍ଣିତ",
    "4292": " ୩୨",
    "4293": " ୩୭",
    "4294": " ଅସୁର",
    "4295": "କୀ",
    "4296": " ୯୧",
    "4297": " ଦକ୍ଷିଣା",
    "4298": " ବିଷୁବ",
    "4299": " କୋଣରେ",
    "4300": "-୪",
    "4301": " ପାଇଥିବା",
    "4302": " ବିଷୟବ",
    "4303": " ବିଷୟବସ୍ତୁ",
    "4304": "ଗ୍ନ",
    "4305": " ଅନ୍ୟାନ୍ୟ",
    "4306": " ଏଥି",
    "4307": " ଖୁବ୍",
    "4308": " ଡି-",
    "4309": " ୧୯୭୦",
    "4310": " କରିଦିଆଗଲା",
    "4311": "ଲରୁ",
    "4312": " ସଂସ୍ଥାର",
    "4313": "ୀନ୍",
    "4314": " ଅବକ୍ଷୟ",
    "4315": " ହେବାରୁ",
    "4316": " କୀଟା",
    "4317": " କୀଟାଣୁ",
    "4318": " କରିଦିଏ",
    "4319": " ଗଣନା",
    "4320": " ୨୦୧୩",
    "4321": "ଆସୁ",
    "4322": " ସଂଖ୍ୟାରେ",
    "4323": " ସ୍ପର୍ଶ",
    "4324": " ସରକାରଙ୍କ",
    "4325": " ସମି",
    "4326": " ସମିତି",
    "4327": " ସଚେ",
    "4328": " ସଚେତନ",
    "4329": "ରେଇ",
    "4330": "ଦେବା",
    "4331": " ଆଖି",
    "4332": " ବଳି",
    "4333": " ହୋଇପାରିବ",
    "4334": "ଦୁର୍",
    "4335": "ଅଂଶୁ",
    "4336": "ଅନ୍ୟା",
    "4337": "ଅନ୍ୟାନ୍ୟ",
    "4338": " ପରିଶ୍ରମ",
    "4339": " ଢେ",
    "4340": " ଔଷଧ,",
    "4341": "ଲକ୍ଷଣ",
    "4342": " ପୃ",
    "4343": " ପୃଥ",
    "4344": " ଶିରାଭ୍ୟନ୍ତର",
    "4345": " କୂ",
    "4346": " ବ୍ୟାପି",
    "4347": "ଏକୱା",
    "4348": "ଏକୱାଡ୍",
    "4349": "୨)",
    "4350": "ଦିବସ",
    "4351": "ଦିବସୀୟ",
    "4352": " ଦ୍ରୁତ",
    "4353": " ବେଟିଙ୍ଗ",
    "4354": " କୁହାଯାଉଥିଲା",
    "4355": " ୨ଟି",
    "4356": " କ୍ରି",
    "4357": " କ୍ରିକେଟରୁ",
    "4358": " 'ଅ",
    "4359": "ଓଡ଼ିଆଚଳଚ୍ଚିତ୍ର",
    "4360": " କଥାଚିତ୍ରଟିରେ",
    "4361": " ବିଭୂତି",
    "4362": " ବାପି",
    "4363": " ଶୈଳ",
    "4364": " କଣ୍ଠଶିଳ୍ପୀ",
    "4365": " ପୂର୍ଣ୍ଣମୀ",
    "4366": " ଅଇଘରା",
    "4367": "ନ୍ୟୁ",
    "4368": "ନ୍ୟୁତ୍ସବ",
    "4369": "ାରିକ",
    "4370": "ଶିଖା",
    "4371": " ସଂଗ୍ରହ",
    "4372": " ସାଇ",
    "4373": " ଗ୍ରାମର",
    "4374": "ଧ୍ୟା",
    "4375": " ଖୋଳ",
    "4376": "ତ୍ତନ",
    "4377": "ସଲ",
    "4378": " କରାଯାଉଥିବା",
    "4379": "ଙ୍ଗଳ",
    "4380": " ପୋଡ଼ି",
    "4381": "ପୁରୀ",
    "4382": " ପଟ",
    "4383": " ପୋତି",
    "4384": " ଲଗା",
    "4385": " ପରସ୍",
    "4386": " ପରସ୍ପର",
    "4387": " ଗାଇ",
    "4388": "୭୪",
    "4389": " ଅଉରଙ୍ଗାବାଦ",
    "4390": "୧୫",
    "4391": "୨୦୧୧",
    "4392": " ଗ୍ରୀଷ୍ମ",
    "4393": "ଳୀୟ",
    "4394": " ସେଣ୍ଟିଗ୍ରେ",
    "4395": " ସେଣ୍ଟିଗ୍ରେଡ",
    "4396": "ଭୂତ",
    "4397": " ଆଠମ",
    "4398": " ଆଠମଲ୍ଲିକ",
    "4399": "ଶିବ",
    "4400": " ନିକଟସ୍ଥ",
    "4401": "ଲାଡ",
    "4402": "ମାଲ",
    "4403": " ଦୁର",
    "4404": "ବର୍ତୀ",
    "4405": " ରହୁ",
    "4406": " ସମୁଦ୍ରରେ",
    "4407": " ଅବସରରେ",
    "4408": " ସିଣ୍ଡ୍ରୋ",
    "4409": " ସିଣ୍ଡ୍ରୋମ",
    "4410": " ଶୋଇବା",
    "4411": "ଘଟଣା",
    "4412": " ଜନ‌କ",
    "4413": " ସଂକ୍ରମଣ,",
    "4414": " ଶ୍ୱାସ",
    "4415": "କରଣ",
    "4416": "ଶୁର",
    "4417": " ହଠ",
    "4418": " ହଠାତ",
    "4419": " ୨୦୧୧ରେ",
    "4420": "ପାଠା",
    "4421": " ନାମ:",
    "4422": " ଲତା",
    "4423": " କୁଳ",
    "4424": " ପର୍ଯ୍ୟା",
    "4425": " ଶ୍ଵେତ",
    "4426": "ବର୍ଣ୍ଣ",
    "4427": " ନାରଙ୍ଗୀ",
    "4428": " ବୀଜ",
    "4429": "କ୍ରା",
    "4430": " ଲମ୍ବା",
    "4431": " ସଙ୍କୋ",
    "4432": "ବର୍ଷରେ",
    "4433": "୧.",
    "4434": "ନ୍ଧ୍ର",
    "4435": " ପ୍ରଦେଶରେ",
    "4436": "ୟେ",
    "4437": " ବର୍ମା",
    "4438": " ଥାଇଲାଣ୍ଡ",
    "4439": "ାଇନ(",
    "4440": "କ୍ଲେ",
    "4441": " ପ୍ରମାଣିତ",
    "4442": "ରାଜ୍ୟର",
    "4443": "ମୂଳ",
    "4444": " ଆହରିତ",
    "4445": "ସୋମା",
    "4446": " ପରଜୀବୀ",
    "4447": " ଘାତ",
    "4448": " ପୀଡାହାରୀ",
    "4449": "ଜିନ",
    "4450": " କ୍ରିୟ",
    "4451": " କ୍ରିୟା",
    "4452": " ଅତିସାର",
    "4453": "କୁହା",
    "4454": " ସାମଲ,",
    "4455": " ସ୍ୱାଇଁ",
    "4456": " ଜନସଂଖ୍ୟ",
    "4457": " ସମୁ",
    "4458": " ଆସିଥିଲା",
    "4459": " ଚାଷ",
    "4460": " ରୋମାନ",
    "4461": "ଖୋ",
    "4462": "ନ୍ଧାନ",
    "4463": " ୧୯୮୬",
    "4464": "ଯୋ",
    "4465": " ମେନନ୍‌",
    "4466": " ମାୟା",
    "4467": "୦ରେ",
    "4468": " ନାଗାର୍ଜୁନଙ୍କର",
    "4469": "ଡ଼ା‌",
    "4470": "‌‌",
    "4471": "ନ‌",
    "4472": " ଦଗୁପତି",
    "4473": " ସଭି",
    "4474": " ପ୍ରଯୋଜକ",
    "4475": " ଅମଲା",
    "4476": " ଗୀ",
    "4477": "ର୍ଡ଼ର",
    "4478": " ନେଇଛନ୍ତି",
    "4479": " ବର୍ଷରେ",
    "4480": " ଶୁଦ୍ଧ",
    "4481": " ଖୋଲି",
    "4482": " ନବା",
    "4483": " ଖ୍ରୀ",
    "4484": " ଅଲୋଚକ",
    "4485": " ଫିଲ୍ମ‌",
    "4486": " ତମ",
    "4487": " ନୃତ୍ୟ",
    "4488": " ଆଣିବା",
    "4489": "ବଡ଼",
    "4490": " ଖଳ",
    "4491": " ପ୍ରତିଶୋଧ",
    "4492": " ଚୈ",
    "4493": "୨୦୧୪ରେ",
    "4494": " ପରିବାରର",
    "4495": " ରଖିଥିଲେ",
    "4496": "ଙ୍କଦ୍ୱାରା",
    "4497": " ଅଭିନୟକୁ",
    "4498": " ଦ୍ୱି",
    "4499": "ଷୀ",
    "4500": "ହାସ",
    "4501": "ଲାୟ",
    "4502": "ଅକ୍ଟୋବର",
    "4503": " ଘୋଷଣା",
    "4504": " ୧୯୫୯",
    "4505": " ଦୂରଦର୍ଶ",
    "4506": "ଟିରୁ",
    "4507": " ଅତିଥି",
    "4508": " ୯ଟି",
    "4509": " ୩ଟି",
    "4510": " ପୁରସ୍କାରରେ",
    "4511": "ଦାତା",
    "4512": " ମନୋରଞ୍ଜନ",
    "4513": " ଗୋପାଳ",
    "4514": " ବିଜ",
    "4515": " ସଭାପତି",
    "4516": " ଫ୍",
    "4517": " ନାଗାର୍ଜୁ",
    "4518": "ସୂଦନ",
    "4519": " ନାରାୟଣ",
    "4520": " ସଂଗୀତ",
    "4521": " ଚାଲୁ",
    "4522": "ଣୀ,",
    "4523": " ଖୋଜ",
    "4524": "ଟିଂ",
    "4525": " ହସ୍ତ",
    "4526": " ଅମିତାଭ",
    "4527": " ତେଲ",
    "4528": " କୋଟି",
    "4529": " ପ୍ରସାରିତ",
    "4530": " ପଶୁ",
    "4531": " ଆନୁ",
    "4532": "ଶହ",
    "4533": " ପ୍ରଜାତିର",
    "4534": " ବିଶ୍ଵରେ",
    "4535": " ଆକୃତି",
    "4536": " ଆକୃତିର",
    "4537": " ୪୮",
    "4538": " ଦେଖାଯାଆନ୍ତି",
    "4539": " ପାଉଣ୍ଡ",
    "4540": " ବିଚରଣ",
    "4541": " ଦେଖାଯାଉଥିବା",
    "4542": " ୪ରୁ",
    "4543": " ପ୍ରଭାବରେ",
    "4544": " ୮୬",
    "4545": "ୋଗ୍ରାଫି",
    "4546": "ଜାଣି",
    "4547": " ଧାଡ଼ି",
    "4548": "ଚ,",
    "4549": "ଟ୍ରା",
    "4550": " ସାରିକା",
    "4551": " ବଚ୍ଚ",
    "4552": "କୋଟି",
    "4553": " ଧାର",
    "4554": " ଚକ୍ରବର୍ତ୍ତୀ",
    "4555": " ଓଡ଼ିଆରେ",
    "4556": " ରୂପା",
    "4557": "ଦୀ,",
    "4558": " ଈ",
    "4559": "’ଙ୍କ",
    "4560": " ପୁଣ",
    "4561": " ପୁଣ୍ୟ",
    "4562": " ସ୍ୱୟଂ",
    "4563": " ଜନକ",
    "4564": "ଭୂମିକ",
    "4565": " ହୋଇଛନ୍ତି",
    "4566": " ସ୍ତୁ",
    "4567": " କରାଯାଉଛି",
    "4568": " ମନ୍ତ୍ର",
    "4569": "ତାଳ",
    "4570": " ଆସିଥାଏ",
    "4571": " ଚିତ୍ରକର",
    "4572": "ସି,",
    "4573": " ଶ୍ରୀକ୍ଷେତ୍ରରେ",
    "4574": " ଶ୍ରୀମନ୍ଦିରରେ",
    "4575": "ଣୀରେ",
    "4576": " ଦୂରଦର୍ଶନ",
    "4577": " ୧୯୯୮",
    "4578": " ଧାରାବାହିକରେ",
    "4579": " ଏକ୍ସ",
    "4580": " ଚାକିରି",
    "4581": "୧୯୫୭",
    "4582": " ଗୋଟି",
    "4583": "ବଦ",
    "4584": "ଣ୍ଡୀ",
    "4585": "\"କୁ",
    "4586": " ତୁମେ",
    "4587": " ପୁସ୍ତକ",
    "4588": "୧୨",
    "4589": " ଆଗ୍ରହ",
    "4590": " ଶ୍ରେଣୀରେ",
    "4591": "ଏଟର",
    "4592": "ଷ୍ଠାନ",
    "4593": "ମଣ୍ଡଳରେ",
    "4594": " ପୃଥିବୀ",
    "4595": "ୃଷ୍ଠ",
    "4596": "ଲିଅନ୍",
    "4597": "ସିଏ",
    "4598": "ସିଟୋ",
    "4599": "ସିଟୋସିନ",
    "4600": " ହରମୋ",
    "4601": " ସାଂଘାତିକ",
    "4602": " ଦେଖାଯାଇ",
    "4603": " ଗ୍ରନ୍",
    "4604": "ଖଣ୍ଡ",
    "4605": " ନିଶ୍ଚ",
    "4606": " ଶୁଖି",
    "4607": " ରୋଷ",
    "4608": " ଘରକୁ",
    "4609": " ନିଷ୍ଠାର",
    "4610": " ପୁରୀର",
    "4611": " ଅର୍ପଣ",
    "4612": " ୩୦ରୁ",
    "4613": " ବଳଭଦ୍ର",
    "4614": "୨୭",
    "4615": "ବିହାରୀ",
    "4616": " ଖୋର୍ଦ୍ଧା",
    "4617": " ହାଇସ୍କୁ",
    "4618": "ଟ୍ରିକ",
    "4619": "ମୋହନ",
    "4620": "ମୋହ",
    "4621": " ପ୍ରକାଶିତ",
    "4622": "ବାର୍",
    "4623": " ଭଞ୍ଜନ",
    "4624": " ଭଞ୍ଜନଗର",
    "4625": "ଘୁ",
    "4626": " ଊ",
    "4627": "ବୋଧ",
    "4628": " କୋଇ",
    "4629": " ରଚୟ",
    "4630": " ରଚୟିତା",
    "4631": "ଇଣ୍ଡୋ",
    "4632": "ଲେସିଆ",
    "4633": "ଲାଦେଶ",
    "4634": "ନେସିଆ",
    "4635": "ଁମାର",
    "4636": " ବ‌ହୁ",
    "4637": " ବଢ଼ିବା",
    "4638": " ସିଜର",
    "4639": "ଶାସ",
    "4640": " ପଠ",
    "4641": " ଜଣାପଡ଼େ",
    "4642": " ଭବିଷ୍ୟତ",
    "4643": "ଜିଲ",
    "4644": " ଏମ",
    "4645": " ଏମ.",
    "4646": " ନିର୍ଦେଶ",
    "4647": " ୨୦୧୬",
    "4648": "ଟିକ୍",
    "4649": " କୋଷ୍ଠ",
    "4650": " କୋଷ୍ଠକା",
    "4651": " କୋଷ୍ଠକାଠି",
    "4652": " କୋଷ୍ଠକାଠିନ୍ୟ",
    "4653": "ଗର୍ଭାବ",
    "4654": " ମାସରେ",
    "4655": "ଡେନୋ",
    "4656": "ଡେନୋକାର୍",
    "4657": "ଡେନୋକାର୍ସିନୋ",
    "4658": " ହ୍ରାସ,",
    "4659": " ଗାଢ଼",
    "4660": "ହେବ",
    "4661": " କ୍ୱ",
    "4662": " ଦେଖାଯାଏ,",
    "4663": "ଟ୍ରାସା",
    "4664": "ଟ୍ରାସାଉଣ୍ଡ",
    "4665": " ତନ୍ତୁ",
    "4666": " ଚତୁର୍ଥ",
    "4667": " ଏକମାତ୍ର",
    "4668": " ଫଳା",
    "4669": " ଫଳାଫଳ",
    "4670": "ସାହ",
    "4671": "ଶୀଘ୍ର",
    "4672": " ବଞ୍ଚିବା",
    "4673": "ପାକ",
    "4674": " ଜଟୀ",
    "4675": " ଜଟୀଳ",
    "4676": " ମଦ୍ୟ",
    "4677": " ମଦ୍ୟପାନ",
    "4678": " ପିତ୍",
    "4679": " ରହିଲେ",
    "4680": "ବୁଦ",
    "4681": " ରକ୍ତରେ",
    "4682": " ପରୀକ୍ଷାରେ",
    "4683": " ନଳୀ",
    "4684": "ଦୀର୍ଘ",
    "4685": " ଗର୍ଭରେ",
    "4686": " ଜନ୍",
    "4687": " ଏହାଙ୍କ",
    "4688": "ୟବ",
    "4689": " ମୁକୁ",
    "4690": " କବିତ",
    "4691": " ଡ୍ର",
    "4692": " ଶତ୍ରୁ",
    "4693": " ଦାୟୀ",
    "4694": " ବିଫଳ",
    "4695": "ଣିରେ",
    "4696": " ରାସ୍ତାରେ",
    "4697": " ଉଦ୍ଧାର",
    "4698": " ରାଉ",
    "4699": " ମହାପାତ୍ର,",
    "4700": "ୁଆଲ",
    "4701": "ବଂଶର",
    "4702": "ବିକା",
    "4703": " ବିଦର୍ଭ",
    "4704": " ଅଗ୍ନିଶ୍ଵର",
    "4705": " ଜଗନ୍ନାଥଙ୍କ",
    "4706": " ବୁହା",
    "4707": "ୋଧକ",
    "4708": " ନମ",
    "4709": " ମହାଦେବଙ୍କ",
    "4710": " ନିମ୍ନରେ",
    "4711": "ଲିପି",
    "4712": " ନମ୍ବର",
    "4713": "ହାନ୍ତି",
    "4714": " କ୍ଷରଣ",
    "4715": " ସୁସ୍ଥ",
    "4716": " କପ୍",
    "4717": " ସମ୍ପୁର୍ଣ୍ଣ",
    "4718": "ଦାୟୀ",
    "4719": " ଖଣିଜ",
    "4720": " ଛଡା",
    "4721": "ପେଟ",
    "4722": " ଝାଡା",
    "4723": " ସଂପୂର୍ଣ୍ଣ",
    "4724": " ସଂସ୍ଥାନର",
    "4725": "ଟସ୍",
    "4726": " ପ୍ରତିରୋ",
    "4727": " ଯଥା:-",
    "4728": "େର",
    "4729": "ମାଟୋ",
    "4730": " ନିର୍ଣ୍ଣୟାତ୍ମକ",
    "4731": "ାୟକ",
    "4732": " ପ୍ରକ୍ରିୟା",
    "4733": " ଉଚ୍ଚିତ",
    "4734": " ପରିମାଣରେ",
    "4735": "ସର୍ବ",
    "4736": "ୟୁର୍",
    "4737": "ହିତାର",
    "4738": "ସ୍ତା",
    "4739": "ଦ୍ଦ",
    "4740": "ମାରେ",
    "4741": " ପ୍ରଦତ୍ତ",
    "4742": " ଉଚ୍ଚତମ",
    "4743": " ନିମ",
    "4744": " ନିମିତ୍ତ",
    "4745": "ଲକ୍ଷ୍",
    "4746": "ୟରେ",
    "4747": "ଘରିଆ",
    "4748": "ତିଶ",
    "4749": "ପୁର,",
    "4750": " ଗୁଜରାଟର",
    "4751": " ଟେନି",
    "4752": " ଟେନିସ",
    "4753": " ସିଙ୍ଗ",
    "4754": " ସିଙ୍ଗଲ୍ସ",
    "4755": "ଜି,",
    "4756": " ୨୦୦୯",
    "4757": " ରୀତି",
    "4758": " ଗଲୁ",
    "4759": "କୁର",
    "4760": "ଙ୍କିଲୋସ୍ଟୋ",
    "4761": "ଙ୍କିଲୋସ୍ଟୋମା",
    "4762": "ନ୍‌ସ",
    "4763": " ସଂକ୍ରମିତ",
    "4764": " ଅଣ୍ଡ",
    "4765": " ପାଦରେ",
    "4766": " କରିବାଦ୍ୱାରା",
    "4767": "ଅନ୍ତ",
    "4768": " ଗୋଡ଼",
    "4769": " ସୁଡ଼",
    "4770": " ସୁଡ଼ଙ୍ଗ",
    "4771": " କାଶ,",
    "4772": "ଗତି",
    "4773": " ଧଳା",
    "4774": " ମାଈ",
    "4775": "ଯାଏ,",
    "4776": " ପଟୁ",
    "4777": " ଫୁଟି",
    "4778": " ପତଳା",
    "4779": " ସତ",
    "4780": " ସତର୍କ",
    "4781": " କାମୁଡ଼",
    "4782": " ଶରୀରରେ",
    "4783": " ଆସ",
    "4784": " ନର୍ମା",
    "4785": " ନର୍ମାଲ",
    "4786": " ସାଲାଇ",
    "4787": " ଖୋଜି",
    "4788": " ସ୍ପ୍ରେ",
    "4789": " ମହର୍ଷିଙ୍କ",
    "4790": " ଗୁମ୍ଫା",
    "4791": "ଷ୍ଟମ",
    "4792": " ପୂର୍ବା",
    "4793": "ଭିମୁଖ",
    "4794": "ଭିମୁଖୀ",
    "4795": "ଋଷି",
    "4796": " ମଠ,",
    "4797": " ଋଷିଙ୍କ",
    "4798": " ସନ୍",
    "4799": " ମାନଙ୍କୁ",
    "4800": "କମ୍ପ",
    "4801": "ତାକୁ",
    "4802": "ଳେଇ",
    "4803": " ଦିଆଯାଇଥିଲା",
    "4804": " ହୋଇଥିଲା।",
    "4805": "ପୁରାତନ",
    "4806": " ବ୍ରିଟିଶ",
    "4807": " ଅଭୟାରଣ",
    "4808": "ଯକ",
    "4809": " .",
    "4810": "ଅଚଳ",
    "4811": "୭%",
    "4812": "ଘରୁ",
    "4813": " ଅଚିନ୍ତା",
    "4814": " ସେବକମାନେ",
    "4815": " ଛୁ",
    "4816": " ଗଜପତି",
    "4817": " ଉପନ୍ୟାସ",
    "4818": " ଘଟ",
    "4819": " ଡାକୁ",
    "4820": "ଗଳ୍ପ",
    "4821": " କାବ୍ୟ",
    "4822": " ଭକ୍ତି",
    "4823": " ବ୍ୟଙ୍ଗ",
    "4824": "ଦକ",
    "4825": " ବ୍ଳକ",
    "4826": " ଅଚ୍ୟୁତାନନ୍ଦ",
    "4827": " ବଂଶରେ",
    "4828": "ପୁତ୍ର",
    "4829": " ଡାକି",
    "4830": " ମିଳୁଛି",
    "4831": " ଅଧ୍ୟ",
    "4832": " ବାବୁ",
    "4833": " ୧୨ଟି",
    "4834": "ନେରା",
    "4835": "ପ୍ରକାର",
    "4836": " ଇଉରୋ",
    "4837": "ଅଜନ",
    "4838": "ଅଜନସିଙ୍ଗ",
    "4839": "ଅଜନସିଙ୍ଗେନିଆ",
    "4840": "ପୁରି",
    "4841": " ଓଭି",
    "4842": "ରାପ୍",
    "4843": " ଡିଜିଜ",
    "4844": " ପ୍ରଶାସନିକ",
    "4845": " କରିଦେଲେ",
    "4846": " ସୋହମ",
    "4847": "ୀରା",
    "4848": " ମାମ",
    "4849": " ଘରୋଇ",
    "4850": " ଡାହାଣ",
    "4851": "ରାହାଣେ",
    "4852": " ଟ୍ରଫିରେ",
    "4853": " ବିଶ୍ଵକପରେ",
    "4854": " ମେଚରେ",
    "4855": " ମଞ୍ଚ",
    "4856": " ୧୯୭୨",
    "4857": " ଅଲିମ୍ପିକ୍‌ସରେ",
    "4858": " ପ୍ରତିନିଧିତ୍ୱ",
    "4859": " କାଂସ",
    "4860": " କାଂସ୍ୟ",
    "4861": " ନେତୃତ୍ୱ",
    "4862": "ଯଦିଓ",
    "4863": " କ୍ରୀଡ",
    "4864": " ବାଛି",
    "4865": " ଦେଶରେ",
    "4866": "ଜିମ୍",
    "4867": " ପ୍ରେମଜୀ",
    "4868": "ପୌ",
    "4869": " ୱିପ୍ର",
    "4870": " ୱିପ୍ରୋର",
    "4871": " ଗି",
    "4872": " କରିଥିଲେ।",
    "4873": " ହସି",
    "4874": "ଡକ୍",
    "4875": "ଧୁଆ",
    "4876": " କାର୍ଯ୍ୟକାରୀ",
    "4877": " ଉପାଧି",
    "4878": " କ୍ରିକେ",
    "4879": "ତ୍ରେତୟା",
    "4880": "ଏପରିକି",
    "4881": " ମୁଖ୍ୟମନ୍ତ୍ରୀ",
    "4882": "ଲଭ",
    "4883": " କଳାରେ",
    "4884": " ପଢିବା",
    "4885": " ତାଲି",
    "4886": " ତାଲିମ",
    "4887": " ଏୟାର୍",
    "4888": " ବ୍ୟାଙ୍କ",
    "4889": "ନାଲ୍",
    "4890": " ରାଜ୍ୟଗୋ",
    "4891": " ରାଜ୍ୟଗୋଷ୍ଠ",
    "4892": " ରାଜ୍ୟଗୋଷ୍ଠୀ",
    "4893": " ୪ଟି",
    "4894": " ଆଫ୍ରୋ",
    "4895": " ମହାବିଦ୍ୟାଳୟରେ",
    "4896": " ଖି",
    "4897": "ନ୍ଦା",
    "4898": " ପଏଣ୍ଟ୍",
    "4899": "ର୍ବରୁ",
    "4900": "ଭୋକ୍ତା",
    "4901": " ଅବଧି",
    "4902": " ଜଗ",
    "4903": " ସଭାକୁ",
    "4904": " ସଂସଦ",
    "4905": " ମଣ୍ଡଳୀରୁ",
    "4906": "ାନୀ",
    "4907": " କୌଶ",
    "4908": " ଘଟିଥିଲା",
    "4909": "ପାକିସ୍ତାନ",
    "4910": "ହୋର",
    "4911": " ବସି",
    "4912": " ଉଦୟ",
    "4913": " ଏନ୍",
    "4914": "ଅଟାରୀ",
    "4915": " ଅମୃତସର",
    "4916": " କି.ମି",
    "4917": "ରିବା",
    "4918": "ସ୍ଵପରାୟଣତା",
    "4919": " କ୍ଵଚିତ",
    "4920": "ୋଇମ୍ମ୍ୟୁନ",
    "4921": " ଅସାଧାରଣ",
    "4922": " ଚିକିତ୍ସାରେ",
    "4923": " ଚାଉଳ",
    "4924": " ଗୁଣ୍ଡ",
    "4925": "ସ୍ରବଣ",
    "4926": " ରଥରେ",
    "4927": "ଡୁ",
    "4928": "ଦଳା",
    "4929": " ବଢ",
    "4930": "ାଳନ",
    "4931": "ଭାରିଆ",
    "4932": " ଭୃଣ",
    "4933": " ଗଦା",
    "4934": " ଚାଲିଥାଏ",
    "4935": "ଯନ୍ତ୍ରଣା",
    "4936": " ଉଠେଇ",
    "4937": " ଅନିର୍ଦ୍ଦିଷ୍ଟ",
    "4938": " ପାରାସେଟାମୋଲ",
    "4939": " ସ୍ପାଇ",
    "4940": "ଧକ",
    "4941": "ଣ୍ଟାରେ",
    "4942": " ସିଆ",
    "4943": "ଅଧା",
    "4944": " ଟ୍ୟୁ",
    "4945": "ଶାରୀରିକ",
    "4946": " ଫଳପ୍ରଦ",
    "4947": " ଭୋଗୁଥିବା",
    "4948": ".ଏ.ଆଇ.ଡି.",
    "4949": "ସିୟମ",
    "4950": "ଅତାବିରା",
    "4951": "ଅତିସକ୍ରିୟ",
    "4952": "ଫିନ",
    "4953": " ଅରୁ",
    "4954": " ଅଥାନ",
    "4955": " ମେଟି",
    "4956": " ମୁଣ୍ଡବ୍ୟଥା",
    "4957": "ପ୍‍ହା",
    "4958": "ପ୍‍ହାଏ",
    "4959": "ପ୍‍ହାଏସ୍ତ",
    "4960": "ଖ୍‌",
    "4961": "ଖ୍‌ତ",
    "4962": "ଖ୍‌ତୋନି",
    "4963": "ଖ୍‌ତୋନିଉ",
    "4964": " ଏଥେନ୍ସର",
    "4965": " ସର୍ପ",
    "4966": "ସାଇଡ",
    "4967": " ମାତୃ",
    "4968": " ଓଡେଶି",
    "4969": " ଓଡେଶିୟ",
    "4970": " ବୁଢୀ",
    "4971": " ବୁଢୀଆ",
    "4972": "ଅଦାକୁ",
    "4973": " ୨୦୧୪ର",
    "4974": " ଭାଜି",
    "4975": "ଦ୍ଵୈତ",
    "4976": " ଭାସ୍କର୍ଯ୍ୟ",
    "4977": "ମସି",
    "4978": " ἡ",
    "4979": " ἡμ",
    "4980": " ἡμι",
    "4981": "κρα",
    "4982": "κραν",
    "4983": "κρανί",
    "4984": ",୪୦୦",
    "4985": "୦୦:",
    "4986": " କାମଦେବ",
    "4987": " କାଞ୍ଚି",
    "4988": " କିମ୍ବଦନ୍ତୀରୁ",
    "4989": " କର୍କଶା",
    "4990": "ଣ୍ଡିନ୍ୟ",
    "4991": " ହୁଙ୍କା",
    "4992": " ମାତ୍ରା",
    "4993": "ଡ଼ାଇ",
    "4994": " ଅଂଶବିଶେଷ",
    "4995": " ଶାସ୍ତ୍ର",
    "4996": " ଅନତି",
    "4997": " ଗାଆଁଠାରୁ",
    "4998": "ତ୍ରି",
    "4999": " ଉଦ୍ଭିଦ।",
    "5000": " ଏହାଠାରୁ"
}