{
    "1": "<UNK>",
    "2": "<BOS>",
    "3": "<EOS>",
    "4": "ଜ",
    "5": "କ",
    "6": "ହ",
    "7": "୨",
    "8": "ଷ",
    "9": "୬",
    "10": "ଘ",
    "11": "ନ",
    "12": "ୋ",
    "13": "ଛ",
    "14": "୪",
    "15": "ଧ",
    "16": " ",
    "17": "ଢ",
    "18": "ଞ",
    "19": "ି",
    "20": "ଂ",
    "21": "୩",
    "22": "ର",
    "23": "୧",
    "24": "ଝ",
    "25": "ଵ",
    "26": "ୁ",
    "27": "ବ",
    "28": "ୌ",
    "29": "ୄ",
    "30": "ଁ",
    "31": "୍",
    "32": "ସ",
    "33": "ୈ",
    "34": "\t",
    "35": "ଖ",
    "36": "ଔ",
    "37": "ତ",
    "38": "ଯ",
    "39": "ୃ",
    "40": "ଭ",
    "41": "ଲ",
    "42": "ଏ",
    "43": "ଓ",
    "44": "ୂ",
    "45": "ଥ",
    "46": "॥",
    "47": "ଫ",
    "48": "ଳ",
    "49": "ୀ",
    "50": "ଋ",
    "51": "ଠ",
    "52": "ଣ",
    "53": "ଐ",
    "54": "ଗ",
    "55": "ଟ",
    "56": "ଡ",
    "57": "େ",
    "58": "ଅ",
    "59": "ପ",
    "60": "ଇ",
    "61": "୦",
    "62": "୯",
    "63": "ଃ",
    "64": "\n",
    "65": "ଙ",
    "66": "୰",
    "67": "ମ",
    "68": "୮",
    "69": "ଶ",
    "70": "ଉ",
    "71": "ଊ",
    "72": "ଚ",
    "73": "।",
    "74": "ଈ",
    "75": "ଆ",
    "76": "୭",
    "0": "<PAD>",
    "81": "ରେ",
    "82": " ପ",
    "83": " କ",
    "84": "୍ର",
    "85": " ।",
    "86": " ସ",
    "87": " ଅ",
    "88": "ାର",
    "89": "ନ୍",
    "90": " ବ",
    "91": " ମ",
    "92": "ର୍",
    "93": "୍ୟ",
    "94": "ଥି",
    "95": "ଙ୍",
    "96": " ହ",
    "97": "ରି",
    "98": " ନ",
    "99": "ଙ୍କ",
    "100": "ତି",
    "101": " ଦ",
    "102": " ଏ",
    "103": "ବା",
    "104": "ିତ",
    "105": "ଲେ",
    "106": "ିକ",
    "107": " ର",
    "108": "ାନ",
    "109": "ାଇ",
    "110": "କ୍",
    "111": " ପ୍ର",
    "112": "ହି",
    "113": " ଓ",
    "114": "ହା",
    "115": " ଜ",
    "116": " ଆ",
    "117": " ଭ",
    "118": "ତା",
    "119": "ସ୍",
    "120": " କରି",
    "121": "ଲା",
    "122": " ଗ",
    "123": "ଥିଲେ",
    "124": " ଯ",
    "125": "ରୁ",
    "126": "ଷ୍",
    "127": "ମ୍",
    "128": "ନ୍ତ",
    "129": " ଶ",
    "130": "ରା",
    "131": "ଥା",
    "132": "ଟି",
    "133": "ଣ୍",
    "134": "କୁ",
    "135": " ଚ",
    "136": " ବି",
    "137": "ନା",
    "138": "ାରେ",
    "139": "ଡ଼",
    "140": " ନି",
    "141": " ବା",
    "142": "ୋଇ",
    "143": " ଉ",
    "144": "ତ୍",
    "145": "ଛି",
    "146": "ନ୍ଦ",
    "147": "ୋଗ",
    "148": "ିନ",
    "149": "ଦ୍",
    "150": " ସେ",
    "151": "କ୍ଷ",
    "152": " ହୋଇ",
    "153": "ନ୍ତି",
    "154": "ସି",
    "155": " ସ୍",
    "156": " ଅନ",
    "157": "ଧ୍ୟ",
    "158": " ହେ",
    "159": " ୧",
    "160": "ମାନ",
    "161": "୍ଚ",
    "162": "ାମ",
    "163": "ଯା",
    "164": " ଦେ",
    "165": " (",
    "166": " ଏକ",
    "167": "ର୍ଷ",
    "168": "ିତ୍ର",
    "169": " ମଧ୍ୟ",
    "170": " ତ",
    "171": "ାବ",
    "172": "ଣ୍ଡ",
    "173": " ୨",
    "174": "ାଳ",
    "175": "ଥିଲା",
    "176": "କାର",
    "177": "ିଆ",
    "178": "ଷ୍ଟ",
    "179": "ୀୟ",
    "180": "ଥିବା",
    "181": "ିର",
    "182": " ତା",
    "183": " ପାଇ",
    "184": " ଲ",
    "185": "ତ୍ର",
    "186": "ମା",
    "187": "ଙ୍ଗ",
    "188": "ସେ",
    "189": " ଖ",
    "190": "ାର୍",
    "191": "ଯାଏ",
    "192": "ହାର",
    "193": " ଏହି",
    "194": " ପା",
    "195": "ଦେ",
    "196": " ହୁ",
    "197": "ଟେ",
    "198": "ନ୍ୟ",
    "199": " କରିଥିଲେ",
    "200": "ଣା",
    "201": " ପାଇଁ",
    "202": " ସମ",
    "203": " କରା",
    "204": "ଙ୍କର",
    "205": "ଗ୍",
    "206": "ବଂ",
    "207": "  ",
    "208": " ହୁଏ",
    "209": "ବେ",
    "210": "ଙ୍କୁ",
    "211": "୍ୟା",
    "212": " ରା",
    "213": " ନା",
    "214": "ଲି",
    "215": " ଅନୁ",
    "216": "ଏହି",
    "217": " ମା",
    "218": "ରୀ",
    "219": "ଥାଏ",
    "220": "ନି",
    "221": " ଏବଂ",
    "222": "ନ୍ଦିର",
    "223": "ାରୁ",
    "224": "ଳା",
    "225": " କି",
    "226": "ଲ୍",
    "227": " ନିର୍",
    "228": " ଉପ",
    "229": "ଚ୍ଚ",
    "230": "ଯ୍ୟ",
    "231": " ରୋଗ",
    "232": "ବି",
    "233": "ଳି",
    "234": " ପୁ",
    "235": "ଧିକ",
    "236": "ଯାଇ",
    "237": "୍ଜ",
    "238": "ାରତ",
    "239": " ମୁ",
    "240": " ପରି",
    "241": "କି",
    "242": " ଫ",
    "243": "ୂର୍",
    "244": "ିବ",
    "245": "ଏହା",
    "246": "ଞ୍ଜ",
    "247": " ଇ",
    "248": "୍ରୀ",
    "249": "େକ",
    "250": " ଅଭ",
    "251": " ଧ",
    "252": " ମନ୍ଦିର",
    "253": " ସଂ",
    "254": "ଶ୍",
    "255": "ାରା",
    "256": "ମେ",
    "257": "ଦି",
    "258": "ସ୍ତ",
    "259": " ପ୍ରତି",
    "260": "ପ୍ର",
    "261": "ାସ",
    "262": "୦୦",
    "263": " ସହ",
    "264": "ଦ୍ଧ",
    "265": "ମି",
    "266": " ରହି",
    "267": " ସା",
    "268": "ପ୍",
    "269": "ତ୍ତ",
    "270": " ଭାରତ",
    "271": " ବର୍ଷ",
    "272": "ଜା",
    "273": " ମି",
    "274": " ୧୯",
    "275": " ପରେ",
    "276": "କ୍ର",
    "277": "ତମ",
    "278": " କରିବା",
    "279": " ଅବ",
    "280": " ଏହା",
    "281": "ୁର",
    "282": " ମସି",
    "283": " ଚଳ",
    "284": "ଚ୍ଚିତ୍ର",
    "285": " ଅଭିନ",
    "286": "ାୟ",
    "287": " କେ",
    "288": " ଭାବ",
    "289": " ବ୍ୟ",
    "290": "ଳେ",
    "291": "ଦେଶ",
    "292": "ୋକ",
    "293": "େଷ",
    "294": " ଚଳଚ୍ଚିତ୍ର",
    "295": " ଗୁ",
    "296": " ଜଣ",
    "297": "ନ୍ତ୍ର",
    "298": "କ୍ତ",
    "299": "ପା",
    "300": "ମ୍ଭ",
    "301": "ଡି",
    "302": " ଯା",
    "303": " ମସିହା",
    "304": "ଛନ୍ତି",
    "305": " ସମୟ",
    "306": " ବେ",
    "307": "୍ଷ",
    "308": " ଅଟେ",
    "309": " ଅଧିକ",
    "310": " ଦିନ",
    "311": "ଖା",
    "312": "ସାରେ",
    "313": "ିବା",
    "314": "ାରଣ",
    "315": "ୃତ",
    "316": "ପେ",
    "317": "ଣ୍ଣ",
    "318": " ହେବା",
    "319": "ଠାରୁ",
    "320": "ିକା",
    "321": " ସୁ",
    "322": "କା",
    "323": "ଞ୍ଚ",
    "324": "ଥାନ",
    "325": "ଡ଼ି",
    "326": "ମ୍ବ",
    "327": " ନାମ",
    "328": "ଟ୍",
    "329": " କା",
    "330": "ସା",
    "331": "ଦା",
    "332": " ଯେ",
    "333": "ଂଶ",
    "334": " କଥା",
    "335": " ମସିହାରେ",
    "336": " ଥିଲେ",
    "337": " କରାଯାଇ",
    "338": "ାତ",
    "339": "ନ୍ଧ",
    "340": "ୀର",
    "341": "୍ୟୁ",
    "342": "ୀବ",
    "343": " ଘ",
    "344": "ମ୍ପ",
    "345": "ଚିତ୍ର",
    "346": "ଟୋ",
    "347": " ଅନୁସାରେ",
    "348": " କୁ",
    "349": "ମାନଙ୍କ",
    "350": " ଅଭିନୟ",
    "351": "୍ରା",
    "352": " ସି",
    "353": "ଠାରେ",
    "354": " ଭା",
    "355": "ଗୁ",
    "356": " ପର୍",
    "357": "କୋ",
    "358": "ମାନେ",
    "359": "ିଲ୍",
    "360": " ମଧ୍ୟରେ",
    "361": "ପରେ",
    "362": " କରାଯାଏ",
    "363": " ଲା",
    "364": " ରାଜ",
    "365": "ହିଁ",
    "366": " -",
    "367": " ବୋ",
    "368": "ସ୍ଥି",
    "369": " ଗୋ",
    "370": "ଟର",
    "371": "ନ୍ନ",
    "372": " ଜଣେ",
    "373": "ଡ଼ିଆ",
    "374": "ନ୍ତୁ",
    "375": "ୃଷ୍",
    "376": "ହୁ",
    "377": " ପ୍ରଥ",
    "378": "ାରି",
    "379": " ଛ",
    "380": "ମନ୍ତ",
    "381": "୦୧",
    "382": " ଅଗ୍",
    "383": "ଗୋ",
    "384": " ଅଛି",
    "385": "ଡ଼ିକ",
    "386": " ଲୋକ",
    "387": "କ୍ଷା",
    "388": "ୁନ",
    "389": "ଡା",
    "390": "ଣୀ",
    "391": " ଆର",
    "392": " ଯୋଗ",
    "393": "ାରୀ",
    "394": " ଯନ୍ତ୍ର",
    "395": "ବର୍",
    "396": "ଣି",
    "397": " କ୍ଷ",
    "398": " ୩",
    "399": " ପୂର୍",
    "400": " କଥାଚିତ୍ର",
    "401": "ଭା",
    "402": " ଶି",
    "403": " ଟ",
    "404": "ନ୍ମ",
    "405": "ବୁ",
    "406": " ଭାରତୀୟ",
    "407": "ଶୀ",
    "408": "ଣୁ",
    "409": "ଳ୍",
    "410": " ନେ",
    "411": "ଖି",
    "412": "ଶ୍ଵ",
    "413": " ଶେଷ",
    "414": "ଜ୍",
    "415": " ମହା",
    "416": " ବ୍ୟବ",
    "417": "ୱା",
    "418": " ଆଉ",
    "419": "୍ରେ",
    "420": " ଦେଇ",
    "421": " କର",
    "422": " ଥିବା",
    "423": "ବର୍ଷ",
    "424": " ମେ",
    "425": " ଦୁ",
    "426": "ମୁ",
    "427": "ଦ୍ୟ",
    "428": "ଷ୍ଠ",
    "429": "ଦ୍ଵ",
    "430": "ଜି",
    "431": " ଖେ",
    "432": "ଭି",
    "433": "ସର",
    "434": "ତ୍ୟ",
    "435": " ଆରମ୍ଭ",
    "436": "କାରୀ",
    "437": " ଦେବ",
    "438": " \"",
    "439": " ଦ୍",
    "440": "ଳ୍ପ",
    "441": "ୀନ",
    "442": "ନେ",
    "443": "ଗ୍ର",
    "444": " ,",
    "445": " ତାଙ୍କର",
    "446": " ହେଉ",
    "447": " ରହିଛି",
    "448": "କ୍ତି",
    "449": "ଗ୍ରେ",
    "450": " ସ୍ଥାନ",
    "451": "ୀତ",
    "452": "ହେ",
    "453": "ିତା",
    "454": "ଳରେ",
    "455": "କ୍ଷଣ",
    "456": " ପ୍ରଥମ",
    "457": "ିତ୍",
    "458": " ସମୟରେ",
    "459": "ମଣ",
    "460": " ପର୍ଯ୍ୟ",
    "461": "ଶୟ",
    "462": "ହ୍",
    "463": " ତି",
    "464": "ସ୍ଥା",
    "465": " ଅକ୍",
    "466": "ଅଧ",
    "467": "ଶି",
    "468": " ୪",
    "469": "ବାର",
    "470": "ଗତ",
    "471": " କଲେ",
    "472": " ଅନେକ",
    "473": " ଓଡ଼ିଆ",
    "474": " ବୋଲି",
    "475": " ଔ",
    "476": " ହି",
    "477": " ନିମନ୍ତ",
    "478": " ନିମନ୍ତେ",
    "479": "ୋଟ",
    "480": "ଖ୍ୟ",
    "481": " ଭାବେ",
    "482": " ଥିଲା",
    "483": " ନାଗ",
    "484": " ଯନ୍ତ୍ରଣା",
    "485": " ନାହିଁ",
    "486": "ଧାନ",
    "487": "ରରେ",
    "488": " ପ୍ରା",
    "489": " ଦେଖା",
    "490": " ଜନ",
    "491": "ଦ୍ଦେଶ",
    "492": "ଳୀ",
    "493": "ଦ୍ର",
    "494": "ଲୋ",
    "495": " ତାଙ୍କ",
    "496": "ିବସ",
    "497": "‌ହ",
    "498": "ବର",
    "499": " ଯାହା",
    "500": "ଷଧ",
    "501": "ଶ୍ୱ",
    "502": " ନିଜ",
    "503": " ଅଧ",
    "504": "ଦ୍ଵାରା",
    "505": " ଚିତ୍ର",
    "506": " କିଛି",
    "507": "ସନ",
    "508": "୧୯",
    "509": " ଅନ୍ୟ",
    "510": "ଲୁ",
    "511": " ଜନ୍ମ",
    "512": "ତେକ",
    "513": " ଅଟ",
    "514": "ପୁ",
    "515": "ଞ୍ଜି",
    "516": "ପି",
    "517": " ‌",
    "518": " ଗ୍ର",
    "519": "ର୍ମ",
    "520": "ଶୁ",
    "521": "ିୟ",
    "522": "ଦେବ",
    "523": " ଗୁଡ଼ିକ",
    "524": " ବର୍ଷର",
    "525": " ଦିବସ",
    "526": "ଟିଏ",
    "527": "ତେ",
    "528": "ଗି",
    "529": "ବ୍",
    "530": "ଯୋଗ",
    "531": "ୟୁ",
    "532": " କରୁ",
    "533": "ର୍ଶ",
    "534": " ୫",
    "535": "ପାରେ",
    "536": " ହୋଇଥାଏ",
    "537": "ଜୀ",
    "538": "ତ୍ତି",
    "539": " ଚା",
    "540": "କୋର୍",
    "541": " ହୋଇଥିଲା",
    "542": "ଧାରଣ",
    "543": " ଦିଆ",
    "544": "ଉଁ",
    "545": " ନିର୍ଦ୍ଦେଶ",
    "546": " ଭାବରେ",
    "547": " ସ‌ହ",
    "548": " ବାକି",
    "549": " ଦି",
    "550": "ନ୍ଦ୍ର",
    "551": " ପୂର୍ବ",
    "552": "ଦୀ",
    "553": "ରୋ",
    "554": " ୨୦୧",
    "555": " ଔଷଧ",
    "556": "ଚନା",
    "557": " ଭୂ",
    "558": "ଂକୋର୍",
    "559": "ମାଣ",
    "560": " ଥ",
    "561": " ପାଞ୍ଜି",
    "562": "ସ୍ଥିତ",
    "563": "ମିକ",
    "564": "ତନ",
    "565": " ପର",
    "566": "େତ୍ର",
    "567": "ାର୍ଯ୍ୟ",
    "568": " ଯୋଗୁ",
    "569": "ହିତ",
    "570": "ଣ୍ଟ",
    "571": " କ୍ର",
    "572": "ଜୁନ",
    "573": "ଗ୍ରେଗୋ",
    "574": "ଗ୍ରେଗୋରୀ",
    "575": "ଅଧିବ",
    "576": "ଅଧିବର୍ଷ",
    "577": " ଗୁଡ଼ିକରେ",
    "578": "ତମ)",
    "579": " ବର୍",
    "580": " ଯୁ",
    "581": " ଶ୍ରୀ",
    "582": "ୃଷ୍ଟି",
    "583": "ୃତି",
    "584": "ପୁର",
    "585": "ବର୍ତ୍ତ",
    "586": "କେ",
    "587": "ର୍ଭ",
    "588": "ଥିରେ",
    "589": "ଜନ",
    "590": "ଢ଼",
    "591": " ଜିଲ୍",
    "592": " କୋ",
    "593": " ବୟ",
    "594": " ଏହାର",
    "595": " ଜୀବ",
    "596": " କରନ୍ତି",
    "597": "ମ୍ବା",
    "598": " କିନ୍ତୁ",
    "599": "ର୍କ",
    "600": " ଗା",
    "601": " ବୃ",
    "602": "ଟକ",
    "603": " ବେଳେ",
    "604": " ଅର୍",
    "605": " ଅଗ",
    "606": " ୭",
    "607": "ପରି",
    "608": "ଚିତ",
    "609": " ପର୍ଯ୍ୟନ୍ତ",
    "610": " ଲେ",
    "611": " ମାନ",
    "612": " ଅକ୍ଟୋ",
    "613": "ାଳୟ",
    "614": " ମନ୍ଦିରର",
    "615": "ଜ୍ଞ",
    "616": " ୬",
    "617": " ହେଲେ",
    "618": " ଅନ୍ତ",
    "619": " ତେ",
    "620": "ଶା",
    "621": "ୟୀ",
    "622": "ସ୍ଥ",
    "623": " ଡି",
    "624": " ଅନନ୍ତ",
    "625": " ଶୁ",
    "626": "ଗର",
    "627": " ଜଣା",
    "628": " ସବୁ",
    "629": "ୋଜ",
    "630": "ାର୍ଜୁନ",
    "631": " ସର୍",
    "632": "ସୁ",
    "633": "େଟ",
    "634": "ାଳି",
    "635": " କମ",
    "636": "ଗା",
    "637": "ଶ୍ର",
    "638": "ହଣ",
    "639": " ୱା",
    "640": " କାର୍ଯ୍ୟ",
    "641": " ଦୁଇ",
    "642": "ଥିବ",
    "643": " ଉପରେ",
    "644": " ଅବସ୍ଥିତ",
    "645": " ଗୋଟିଏ",
    "646": " ରୂ",
    "647": " ସର",
    "648": "ଗରେ",
    "649": "ଡେ",
    "650": "ଣ୍ଡା",
    "651": " ପ୍ରକାର",
    "652": " ୧୯୯",
    "653": "ୟକ",
    "654": "ୈତ",
    "655": "ଏହାର",
    "656": "ଥାନ୍ତି",
    "657": "ଡ଼ା",
    "658": "ସ୍କ",
    "659": " ମୁଖ୍ୟ",
    "660": "ନୋ",
    "661": " ନେଇ",
    "662": " କୌ",
    "663": "ଣସି",
    "664": "ତ୍ୟା",
    "665": " ହୋଇଥିଲେ",
    "666": "୍ରି",
    "667": "ରଣ",
    "668": " ଅତି",
    "669": "ତଃ",
    "670": " ଯାଇ",
    "671": "ଶେଷ",
    "672": " ଜାତ",
    "673": " ସାମ",
    "674": "ଦାନ",
    "675": " କରେ",
    "676": " ୨୦୦",
    "677": " ଥାଏ",
    "678": " ଖେଳି",
    "679": "ନାଥ",
    "680": " ଉଚ୍ଚ",
    "681": " କଳା",
    "682": " ଦୂ",
    "683": " କୁହା",
    "684": "ମନ୍ଦିର",
    "685": "ଭାବ",
    "686": "ତ୍ଵ",
    "687": "ଦ୍ୱ",
    "688": " ଅକ୍ଷ",
    "689": "ପର",
    "690": " କେତେକ",
    "691": " କାରଣ",
    "692": "ସରେ",
    "693": "କ୍ରମଣ",
    "694": " ପି",
    "695": "ବେଳେ",
    "696": "ନୀ",
    "697": "ସଂ",
    "698": " ଉତ୍",
    "699": " ଭାଷ",
    "700": " ଉତ୍ତ",
    "701": "ତୁ",
    "702": " ଅଟନ୍ତି",
    "703": " ବୁ",
    "704": "ବାହ",
    "705": " ଭଳି",
    "706": " ତାଙ୍କୁ",
    "707": "ୈତନ୍ୟ",
    "708": " ସ୍ଵ",
    "709": "ଲାର",
    "710": " ଆଦି",
    "711": "ମିତ",
    "712": "ିମ",
    "713": "ନିକ",
    "714": " ସାଧାରଣ",
    "715": " ପୋ",
    "716": "ଅନ",
    "717": " ଠାରୁ",
    "718": " ଦେଖାଯାଏ",
    "719": "ଯୁ",
    "720": " ଅଂକୋର୍",
    "721": "ରିକ",
    "722": "ନ୍ଥ",
    "723": "ଶ୍ଚ",
    "724": "ପ୍ତ",
    "725": " ହୋଇଛି",
    "726": " ଫୁ",
    "727": " ତଥା",
    "728": "  ",
    "729": "ଜୟ",
    "730": " ଚି",
    "731": " ମହ",
    "732": " ଜାତୀୟ",
    "733": " ପାଳ",
    "734": " ଦେଇଥିଲେ",
    "735": " କାମ",
    "736": " ପୂ",
    "737": " ବିଶ୍ଵ",
    "738": " ସମ୍ପ",
    "739": " ଆସି",
    "740": "ତାଙ୍କ",
    "741": "ନ୍ୟା",
    "742": " ଭୋଗ",
    "743": "ସ୍କାର",
    "744": " ଅଗଷ୍ଟ",
    "745": " ସହିତ",
    "746": " ଓଡ଼ି",
    "747": "ଡିକ",
    "748": " ହେଲା",
    "749": "ଧା",
    "750": " ଦ୍ଵ",
    "751": "ିକ୍ଷ",
    "752": " ବିଷ",
    "753": "ଟିର",
    "754": "ପସ",
    "755": " ପରୀ",
    "756": " ଟେ",
    "757": " ଦାସ",
    "758": " ଅଗ୍ନି",
    "759": "ଦ୍ୱାରା",
    "760": "ରୁଷ",
    "761": " ନାଗାର୍ଜୁନ",
    "762": "ଦ୍ୟାଳୟ",
    "763": " ୯",
    "764": " ସୃଷ୍ଟି",
    "765": "ମୀ",
    "766": " ପାର୍",
    "767": "ଶ୍ୟ",
    "768": " ଦକ୍ଷ",
    "769": " ରାଜ୍ୟ",
    "770": " ସମସ୍ତ",
    "771": " ବହୁ",
    "772": " ହୋଇଥିବା",
    "773": "ଠା",
    "774": " ୮",
    "775": "ଖ୍ୟା",
    "776": " ଖା",
    "777": "ଥୀ",
    "778": "ଟା",
    "779": "ଦିନ",
    "780": " ହେଇ",
    "781": " ସମ୍",
    "782": "କାଶ",
    "783": " ପୁର",
    "784": "ୃଷ୍ଣ",
    "785": " ୱାଟ୍",
    "786": "ପୂର୍",
    "787": " ଖୋ",
    "788": "ରର",
    "789": "ଠି",
    "790": "ଷ୍ଟ୍ର",
    "791": " ଲକ୍ଷଣ",
    "792": " ରୋଗୀ",
    "793": "ମ୍ବର",
    "794": "କାଳ",
    "795": " ରଚନା",
    "796": " ହିନ୍ଦ",
    "797": " ମୋ",
    "798": " ଲାଗି",
    "799": "ରାମ",
    "800": " ସ୍ୱ",
    "801": " ଯେଉଁ",
    "802": " କ୍ଷେତ୍ର",
    "803": "ବ୍ଦ",
    "804": "ନରେ",
    "805": " ମଧ୍ୟରୁ",
    "806": " ପ୍ରସ୍ତ",
    "807": "କର",
    "808": " ଚୈତନ୍ୟ",
    "809": " ଚଳଚ୍ଚିତ୍ରରେ",
    "810": " ଜି",
    "811": "ନାଶୟ",
    "812": " ରୋ",
    "813": " ବ୍ୟବହାର",
    "814": " ଭିତ",
    "815": " ବ୍ର",
    "816": " ପୂଜା",
    "817": " କୌଣସି",
    "818": "ଚ୍",
    "819": " ଝ",
    "820": " ଜଳ",
    "821": " ପ୍ରାୟ",
    "822": " ମୁଣ୍ଡ",
    "823": "ମାନଙ୍କର",
    "824": " ଡ",
    "825": "ଭିନ୍ନ",
    "826": " ଭଲ",
    "827": " ପୁରସ୍କାର",
    "828": "ତ୍ରା",
    "829": " ଡା",
    "830": "ଫଳ",
    "831": " ମୂ",
    "832": " ପେ",
    "833": " ମୃତ",
    "834": " ସ୍ଥାନରେ",
    "835": " ବିଭିନ୍ନ",
    "836": "ିକେଟ",
    "837": "ବାଦ",
    "838": "ଭେ",
    "839": "‌ରେ",
    "840": "ହିତ୍ୟ",
    "841": " ଦିଆଯାଏ",
    "842": "ବାକୁ",
    "843": " ତାହା",
    "844": " ବିଶେଷ",
    "845": " ଚେ",
    "846": "ବଳ",
    "847": " ରେ",
    "848": " କରିଛନ୍ତି",
    "849": "୨୦୧",
    "850": " ହାର",
    "851": "ତାଙ୍କର",
    "852": " ଅକ୍ଟୋବର",
    "853": "ଭାରତ",
    "854": " କ୍",
    "855": " ରାଜା",
    "856": "ିତୀୟ",
    "857": " ନିର୍ମିତ",
    "858": " ହେଉଛି",
    "859": " ରି",
    "860": " ଯଥା",
    "861": "ସ୍‍",
    "862": " କରିଥିଲା",
    "863": "ଲିକ",
    "864": " ବ୍ୟା",
    "865": "ହିଳା",
    "866": "ମରେ",
    "867": " ଅଂଶ",
    "868": " ମିଳି",
    "869": "ପାଇ",
    "870": " ବିଷ୍",
    "871": " ସେହି",
    "872": "ତୀ",
    "873": " ୱ",
    "874": " ନିର୍ମାଣ",
    "875": "ଶାଳ",
    "876": "ଯାଉ",
    "877": " ପୁନ",
    "878": " ଜା",
    "879": " ସୋ",
    "880": " ଦଳ",
    "881": "ଦାହ",
    "882": "ନର",
    "883": " ନାମକ",
    "884": "୨୦୦",
    "885": "ଚଳ",
    "886": "ମାର",
    "887": "ଆନ୍ତି",
    "888": "ରିଆ",
    "889": "ଅଞ୍ଜ",
    "890": "ଣ୍ଡି",
    "891": " ଅନ୍ତର୍",
    "892": "ଚନ",
    "893": "ଗୁଡ଼ିକ",
    "894": " ରକ୍ତ",
    "895": " ଶ୍ରେ",
    "896": " ରୂପେ",
    "897": " ସ୍ଥା",
    "898": " ଇତ୍ୟା",
    "899": "ତିକ",
    "900": " ପ୍ରେ",
    "901": " କରିଥିବା",
    "902": " କଷ୍ଟ",
    "903": "ଧି",
    "904": "ଥର",
    "905": "ଙ୍ଗା",
    "906": " ୧୨",
    "907": " ମହିଳା",
    "908": " କଟି",
    "909": " ଚିକ",
    "910": "ଅଁ",
    "911": "ଲାଭ",
    "912": " ଓଡ଼ିଶ",
    "913": "ଯୁକ୍ତ",
    "914": "ତ୍ରୀ",
    "915": " କୁହାଯାଏ",
    "916": "ଦଶୀ",
    "917": " ବିଷ୍ଣୁ",
    "918": "ଗ୍ରୀ",
    "919": "ଖରେ",
    "920": " କାଳ",
    "921": "ଶ୍ଚିମ",
    "922": "ିଣ",
    "923": "ାଂଶ",
    "924": "ମୋ",
    "925": " ଛା",
    "926": "ବେଶ",
    "927": " ବିଷୟ",
    "928": " ଆବ",
    "929": "ଲାଇ",
    "930": "ଭୂ",
    "931": " ଜିଲ୍ଲା",
    "932": " ଖେଳ",
    "933": " ମୁକ୍ତି",
    "934": " ପରୀକ୍ଷା",
    "935": "ଲୀ",
    "936": "ଗନ୍",
    "937": "ଗନ୍ନାଥ",
    "938": " ସାହିତ୍ୟ",
    "939": " ଅଗ୍ନାଶୟ",
    "940": "ହ୍ନ",
    "941": " କରାଯାଇଥାଏ",
    "942": "ୀର୍",
    "943": "ବନ",
    "944": "ପ୍ରା",
    "945": " ବୃକ୍ଷ",
    "946": " ବିଶ୍ୱ",
    "947": "ତାର",
    "948": "ୂର୍ତ୍ତି",
    "949": " ସ୍ଥାପ",
    "950": " କରାଯାଇଛି",
    "951": " କରିବାକୁ",
    "952": " ସମା",
    "953": "ମାନଙ୍କୁ",
    "954": "ଟରେ",
    "955": " ମତ",
    "956": "ଦିତ",
    "957": "ୁଦ୍ର",
    "958": " ସପ୍",
    "959": "ଜିତ",
    "960": "ସବ",
    "961": " ତିଆ",
    "962": "ଗଲା",
    "963": "ଥିବାରୁ",
    "964": " ଛୋଟ",
    "965": "ଚାର",
    "966": "ଥେ",
    "967": "ୋଜନା",
    "968": " ଭୂମିକ",
    "969": " ଶିଶୁ",
    "970": " ୨୨",
    "971": "ଚି",
    "972": " ୨୩",
    "973": " ସ୍ନା",
    "974": " ଚିକିତ୍",
    "975": "ଅନନ୍ତ",
    "976": " ଶା",
    "977": " ସର୍ବ",
    "978": " ଗ୍ରାମ",
    "979": "ବ୍ୟ",
    "980": " ବାହାର",
    "981": " ଦେବୀ",
    "982": " ନୂ",
    "983": "ିକ୍",
    "984": " ମାସ",
    "985": " ପରିବର୍ତ୍ତ",
    "986": "ଗଣ",
    "987": " ଆକ",
    "988": " ମେରୁ",
    "989": " ଇତ୍ୟାଦି",
    "990": "ତାରେ",
    "991": "ୁତ",
    "992": "ସାର",
    "993": "ୁଆ",
    "994": "ଣ୍ଟି",
    "995": " ନିର୍ଣ୍ଣ",
    "996": "ଜ୍ଞାନ",
    "997": "ଦ୍ଧି",
    "998": " ସଙ୍ଗ",
    "999": "ୟା",
    "1000": " ଧରି",
    "1001": "ତ୍ୱ",
    "1002": " ଅପରେ",
    "1003": "ଜପେ",
    "1004": "କପ",
    "1005": "ଥୀନା",
    "1006": "ିବାକୁ",
    "1007": "ଅନ୍ୟ",
    "1008": " ନାମରେ",
    "1009": " ଏହାକୁ",
    "1010": "କ୍ଷ୍",
    "1011": "ଚ୍ଛ",
    "1012": "ମୁଖ",
    "1013": "ପତି",
    "1014": "ପାନ",
    "1015": " ଭାରତର",
    "1016": " ତିଆରି",
    "1017": "ତର",
    "1018": "କ୍ରିୟ",
    "1019": "ସ୍ଥାନ",
    "1020": "ନୁ",
    "1021": " ପଦ",
    "1022": " ଅତ୍ୟ",
    "1023": "୍ୱ",
    "1024": " ହୋଇପାରେ",
    "1025": " ୨୯",
    "1026": "ୃତୀୟ",
    "1027": "ଫି",
    "1028": " ଜଗତ",
    "1029": "ଚ୍ୟୁ",
    "1030": "ଜପେୟୀ",
    "1031": " ଜିଲ୍ଲାର",
    "1032": " ଭାଗ",
    "1033": " ପାଳନ",
    "1034": " ଲୁ",
    "1035": " କିମ୍ବା",
    "1036": "କରି",
    "1037": " ପ୍ରକାଶ",
    "1038": "ୀରେ",
    "1039": " ମୃତ୍ୟୁ",
    "1040": " ମୁକ୍ତିଲାଭ",
    "1041": "ଅଗ୍",
    "1042": "ଜେ",
    "1043": " ସପ୍ତା",
    "1044": "ୀବ୍ର",
    "1045": "ିନେ",
    "1046": " ହାସ",
    "1047": "ଢ଼ି",
    "1048": "ନାୟକ",
    "1049": " ଅପରେଶ",
    "1050": "କପାଳି",
    "1051": " ନିର୍ବା",
    "1052": " ଅଳ୍ପ",
    "1053": "ଲୁଗୁ",
    "1054": " ଏକା",
    "1055": "ନ୍‌",
    "1056": "ଦର୍ଶ",
    "1057": " କାହା",
    "1058": "ଲେଖ",
    "1059": "ବାସ",
    "1060": "ରୁଦ୍ଧ",
    "1061": "ଅନ୍ତି",
    "1062": "ପ୍ରେ",
    "1063": " ପୂର୍ବରୁ",
    "1064": " ୧୯୭",
    "1065": " ବୈ",
    "1066": "ଂରା",
    "1067": "ଂରାଜୀ",
    "1068": " ଶିକ୍ଷ",
    "1069": " ଭୂମିକାରେ",
    "1070": " ପ୍ରତିଶ",
    "1071": " ବୟସ",
    "1072": " ସପ୍ତାହ",
    "1073": " ହା",
    "1074": "ପୋ",
    "1075": " ୧୩",
    "1076": " ପୁରା",
    "1077": "ଗ୍ରହଣ",
    "1078": " ତିନି",
    "1079": "ବିଦ୍ୟାଳୟ",
    "1080": " ଖାଦ୍ୟ",
    "1081": " ପ୍ରଦାହ",
    "1082": " ଅଣ",
    "1083": " ଗର୍ଭ",
    "1084": "ନ୍ୟାଶୟ",
    "1085": " ଅଥୀନା",
    "1086": "ୁମ",
    "1087": "ଷ୍ୟ",
    "1088": "ନ,",
    "1089": " ବ୍ରତ",
    "1090": "କାର୍",
    "1091": "ୃହ",
    "1092": " ଅର୍ଥ",
    "1093": " ଅଞ୍ଚ",
    "1094": "ଚୀନ",
    "1095": "ସ୍ଥିତି",
    "1096": " ଦକ୍ଷିଣ",
    "1097": "ଂସ",
    "1098": " ଉପା",
    "1099": " ଋ",
    "1100": "ପାର",
    "1101": "ସିକ",
    "1102": " ତର",
    "1103": "ଶ୍ୟକ",
    "1104": "ସେଥି",
    "1105": "ଦନ",
    "1106": "ନ୍ତା",
    "1107": "୍ରୋ",
    "1108": " ଜେ",
    "1109": " ତୀବ୍ର",
    "1110": " ପିତା",
    "1111": " ଆଇ",
    "1112": " ଚିକିତ୍ସା",
    "1113": " ଅଧି",
    "1114": "ଚ୍ୟୁତ",
    "1115": " ମଣ୍ଡ",
    "1116": "ଷ୍ଠିତ",
    "1117": "ଦ୍ଦି",
    "1118": " ଜୀବନ",
    "1119": " ଶତା",
    "1120": "ଳକୁ",
    "1121": " କରାଯାଇଥିଲା",
    "1122": " ପାର",
    "1123": " ଭି",
    "1124": " ସମ୍ପର୍କ",
    "1125": "ଷ୍ଟା",
    "1126": " କୃଷ୍ଣ",
    "1127": " ଶବ୍ଦ",
    "1128": " ଉତ୍ତର",
    "1129": " ୧୫",
    "1130": " ଦେଶ",
    "1131": " ବିପ",
    "1132": " ୧୯୮",
    "1133": " ସୂ",
    "1134": "ଜୀବ",
    "1135": "ଂହ",
    "1136": " ପ୍ରଭାବ",
    "1137": " ମାତ୍ର",
    "1138": "ସିଆ",
    "1139": " ହାଇ",
    "1140": " କଥାଚିତ୍ରଟିର",
    "1141": "ଷି",
    "1142": " ମୋଟ",
    "1143": " ସଂକ୍ରମଣ",
    "1144": " ମ୍ୟା",
    "1145": " ବର୍ଣ୍ଣ",
    "1146": "ଣ୍ଠ",
    "1147": "ଏକ",
    "1148": "ଆଁ",
    "1149": " ଦୂରରେ",
    "1150": " କହି",
    "1151": "ତକ",
    "1152": " ଗ୍ରହଣ",
    "1153": " କାନ୍ଥ",
    "1154": " ପଶ୍ଚିମ",
    "1155": "ୟୋ",
    "1156": "କୃତି",
    "1157": " ଗୁଡିକ",
    "1158": " ପ୍ରବେଶ",
    "1159": " ବାର",
    "1160": " ୩୦",
    "1161": "ମିଟର",
    "1162": " ୧୮",
    "1163": " ୨୧",
    "1164": "ଙ୍କା",
    "1165": " ଅବସ୍ଥା",
    "1166": "ଜାତ",
    "1167": " ନିର୍ଣ୍ଣୟ",
    "1168": " କ୍ରିକେଟ",
    "1169": " ଟେଷ୍ଟ",
    "1170": " ଖେଳିଥିଲେ",
    "1171": " ନିର୍ଦ୍ଦେଶନା",
    "1172": " କାହାଣୀ",
    "1173": " କୃ",
    "1174": " ନାରୀ",
    "1175": " ରାଓ",
    "1176": " ନିର୍ଦ୍ଦେଶକ",
    "1177": " ତେଲୁଗୁ",
    "1178": " ବିବାହ",
    "1179": " ଲାଗ",
    "1180": " ଅଣ୍ଡା",
    "1181": " ଗଛ",
    "1182": "ର୍ଯ୍ୟ",
    "1183": "ୋଷ",
    "1184": "ର୍ଣ୍ଣ",
    "1185": " ଭଗ",
    "1186": "ଟିକ",
    "1187": " ନିକ",
    "1188": " ସ୍ଥି",
    "1189": " ଲେଖି",
    "1190": "ପାରି",
    "1191": " ପ୍ରଥମେ",
    "1192": "ଜଣ",
    "1193": " ୧୪",
    "1194": "ଶୀଳ",
    "1195": " ଦର୍ଶ",
    "1196": " କ୍ଷେତ୍ରରେ",
    "1197": "ନ୍ଧି",
    "1198": " ହାତ",
    "1199": "ବକ",
    "1200": "ୁବ",
    "1201": "ମାନଙ୍କରେ",
    "1202": " ସରକାର",
    "1203": "ରୋଧ",
    "1204": "୦%",
    "1205": " ୨୮",
    "1206": " ଦ୍ୱ",
    "1207": "କ୍‌",
    "1208": "େଇ",
    "1209": "ଜନ୍ମ",
    "1210": " '",
    "1211": " ଫଳ",
    "1212": "ହାରା",
    "1213": " ବଂଶ",
    "1214": " ପ୍ରତିଶତ",
    "1215": " ଯାଏ",
    "1216": "କିନେ",
    "1217": "କିନେନି",
    "1218": "ଶ୍ୱର",
    "1219": " ଚାଲି",
    "1220": " ଫିଲ୍",
    "1221": " ନୀ",
    "1222": "ଅକ୍ଷ",
    "1223": " (ଇ",
    "1224": " ଚକ୍ର",
    "1225": " ଚିହ୍ନ",
    "1226": " ଅମ",
    "1227": "ଦ୍ରା",
    "1228": "ନଙ୍କ",
    "1229": " ମୂର୍ତ୍ତି",
    "1230": "୦୦୦",
    "1231": "ପୂର୍ଣ୍ଣ",
    "1232": ".୫",
    "1233": " ଦୂର",
    "1234": "କେତେକ",
    "1235": "ତିରେ",
    "1236": "‍ର",
    "1237": "ଶ୍ଵର",
    "1238": " ସମ୍ଭ",
    "1239": "ବର୍ତ୍ତୀ",
    "1240": " ସହର",
    "1241": " ନେଇଥିଲେ",
    "1242": "ଚେ",
    "1243": "ଲିଆ",
    "1244": " ଲାଭ",
    "1245": " ସଙ୍କ",
    "1246": " ହେଉଥିବା",
    "1247": " ଆବଶ୍ୟକ",
    "1248": " ଚଳଚ୍ଚିତ୍ରଟି",
    "1249": " ପରିବର୍ତ୍ତନ",
    "1250": " କଳାକାର",
    "1251": "),",
    "1252": "ଠାକୁ",
    "1253": " ପୁରୁଷ",
    "1254": " ତୃତୀୟ",
    "1255": "ତେବେ",
    "1256": " ଜଗତରେ",
    "1257": "ନାଗ",
    "1258": "୬ରେ",
    "1259": " ହିନ୍ଦୀ",
    "1260": " ୤",
    "1261": " ଅଙ୍ଗ",
    "1262": " ନ୍ୟ",
    "1263": "ଅଦା",
    "1264": " ମ୍ୟାଚ",
    "1265": "ସ୍ତ୍ର",
    "1266": " ଅନ୍ତର୍ଗତ",
    "1267": " ସଭା",
    "1268": "ଏଠାରେ",
    "1269": "ପାଇଁ",
    "1270": " ମିଶ୍ର",
    "1271": "ଓଡ଼ିଆ",
    "1272": "ଯାଇଛି",
    "1273": "ରାଜ",
    "1274": " ବଳ",
    "1275": " ତୁ",
    "1276": "ହେଁ",
    "1277": "ନାନ",
    "1278": " କେନ୍ଦ୍ର",
    "1279": "ଖର",
    "1280": " ପ୍ରାଚୀନ",
    "1281": "ଚା",
    "1282": " ସୁର",
    "1283": " ସମ୍ମାନ",
    "1284": " ଗଠ",
    "1285": " ରଖ",
    "1286": " ପୂର୍ଣ୍ଣ",
    "1287": " ଦେହ",
    "1288": " ଟ୍ର",
    "1289": " ବିଭା",
    "1290": " ବନ୍ଦ",
    "1291": "ଦ୍ଦିଷ୍ଟ",
    "1292": " ଭିତରେ",
    "1293": " ନାୟକ",
    "1294": " ଜନସଂ",
    "1295": " ଭାଷା",
    "1296": "ିଅ",
    "1297": "ସିନ",
    "1298": " ଲାର୍",
    "1299": " ନାଟକ",
    "1300": " ଦିଲ୍",
    "1301": " ଅକ୍ଟୋପସ",
    "1302": " କବି",
    "1303": " ଅଗ୍ନ୍ୟାଶୟ",
    "1304": " ପ୍ରତିଯୋଗ",
    "1305": " ବାଜପେୟୀ",
    "1306": "ଦର",
    "1307": " ୪୦",
    "1308": " ପତ୍ର",
    "1309": " ଆକାର",
    "1310": "ଫା",
    "1311": " ରଖି",
    "1312": " ବ୍ରା",
    "1313": "ହ୍ମଣ",
    "1314": " ଧର୍ମ",
    "1315": " ପହ",
    "1316": "ଞ୍ଚି",
    "1317": "ମେର୍",
    "1318": " ଭାଷାରେ",
    "1319": " ଦ୍ଵିତୀୟ",
    "1320": "ଳର",
    "1321": " ପର୍ବ",
    "1322": " ଖାଇ",
    "1323": " ଦିଗରେ",
    "1324": "ବୀ",
    "1325": " ୧୧",
    "1326": "ନାହିଁ",
    "1327": " ରହିଥିବା",
    "1328": "ଜରେ",
    "1329": "ଲରେ",
    "1330": "ତ୍ତ୍ଵ",
    "1331": "ଚକ",
    "1332": " ବିଷୟରେ",
    "1333": "ପରିକି",
    "1334": "ଅଧିକ",
    "1335": " ଅପେ",
    "1336": " ଆର୍",
    "1337": " ଆମେ",
    "1338": " ଇଂ",
    "1339": " ପ୍ରସ୍ତୁତ",
    "1340": "ାନା",
    "1341": " କଲା",
    "1342": " ପରିବାର",
    "1343": " ଟ୍ରି",
    "1344": "ମତା",
    "1345": " ଜନ୍ମଗ୍ରହଣ",
    "1346": " ବନ୍ଧ",
    "1347": " ଫିଲ୍ମ",
    "1348": " ଦିଲ୍ଲୀ",
    "1349": "ବାରା",
    "1350": " (ଇଂରାଜୀ",
    "1351": " ପ୍ରଧାନ",
    "1352": " କବ",
    "1353": " ରୋଗରେ",
    "1354": "ସାଧାରଣ",
    "1355": "ମନ୍ତ୍ରୀ",
    "1356": "ଦିତି",
    "1357": " ଅଧକପାଳି",
    "1358": "ଞ୍ଜନ",
    "1359": " ଓଡ଼ିଶାର",
    "1360": " ଅଲ",
    "1361": "ସ,",
    "1362": "ସାୟ",
    "1363": "ର୍ଦ୍ଧ",
    "1364": " ପୀ",
    "1365": "କ୍ଳ",
    "1366": "ସ୍ଵ",
    "1367": "ଦନ୍ତ",
    "1368": " ହେବ",
    "1369": " ସେଠାରେ",
    "1370": " କରିଥାନ୍ତି",
    "1371": " କ୍ଷ୍",
    "1372": "କୃତ",
    "1373": " ପ୍ରମୁଖ",
    "1374": "ଲୋକ",
    "1375": " ଜଣାଯାଏ",
    "1376": " ଲେଖ",
    "1377": " ହିଁ",
    "1378": "ଶକ",
    "1379": " ଥାଇ",
    "1380": "ୋର",
    "1381": " ୨୪",
    "1382": " ୧୦",
    "1383": "ମ୍ନ",
    "1384": " ଅଭି",
    "1385": "ବେଷ",
    "1386": "ତ୍ନ",
    "1387": "ହନ",
    "1388": " ପଥର",
    "1389": " ପ୍ରଶ",
    "1390": " କରୁଥିବା",
    "1391": "ଦ୍ମ",
    "1392": " ସଂଖ୍ୟା",
    "1393": " ସଫଳ",
    "1394": "୧୯୯",
    "1395": " ରଙ୍ଗ",
    "1396": " ଗଣ",
    "1397": " ପ୍ରୋ",
    "1398": " ମୁଣ୍ଡବ",
    "1399": " ମୁଣ୍ଡବଥା",
    "1400": " ବ୍ୟକ୍ତି",
    "1401": "‌ର",
    "1402": " ଶିକ୍ଷା",
    "1403": " ଦେବା",
    "1404": "ମ୍ବାଇ",
    "1405": " ହୋ",
    "1406": ".ଆ",
    "1407": " ଆକ୍ରମଣ",
    "1408": " ସମ୍ବ",
    "1409": "ବିକ",
    "1410": " କର୍କ",
    "1411": " ଅନୁଭ",
    "1412": "ଶ୍ରୀ",
    "1413": " ଯୋ",
    "1414": "ାମିନ",
    "1415": " ଲାର୍ଭା",
    "1416": ".ମି",
    "1417": " ବଡ଼",
    "1418": "ଅଁଳା",
    "1419": "ଗୁଡିକ",
    "1420": "ଣିକ",
    "1421": " ଭଗବା",
    "1422": " ବ୍ରାହ୍ମଣ",
    "1423": " –",
    "1424": "କ୍ଷରେ",
    "1425": "ସେହି",
    "1426": "କିନ୍ତୁ",
    "1427": "ୁହେଁ",
    "1428": "କାର୍ଯ୍ୟ",
    "1429": "ଅଂକୋର୍",
    "1430": "ମ୍ଵ",
    "1431": "ଡିଆ",
    "1432": " ୧୬",
    "1433": "ୂର୍ଯ୍ୟ",
    "1434": " ବାସ",
    "1435": " ଆୟ",
    "1436": " ଭିନ୍ନ",
    "1437": " ସମୁଦ୍ର",
    "1438": "ସମ",
    "1439": " ପୁତ୍ର",
    "1440": " ଅନୁମାନ",
    "1441": " ୨୭",
    "1442": " ସୁରକ୍ଷା",
    "1443": "ୌର",
    "1444": "ତିହା",
    "1445": " ଗୃହ",
    "1446": " କେବଳ",
    "1447": " ଅପେକ୍ଷା",
    "1448": "ରୀର",
    "1449": "ମାତ୍ର",
    "1450": "୩ରେ",
    "1451": "ଏଥିରେ",
    "1452": " ୨୦",
    "1453": " ସାହା",
    "1454": " ସାହାଯ୍ୟ",
    "1455": "ଜାତୀୟ",
    "1456": " ଅତ୍ୟଧିକ",
    "1457": " ବ୍ୟବସ୍ଥା",
    "1458": "ମାରୀ",
    "1459": " ଫେ",
    "1460": "ଶ୍ରମ",
    "1461": "୪ରେ",
    "1462": "ଟିରେ",
    "1463": " ଗାଁ",
    "1464": "ପଣ",
    "1465": ".୭",
    "1466": " ମୁମ୍ବାଇ",
    "1467": "ୃଥିବ",
    "1468": "ଫ୍",
    "1469": "ନ୍ସ",
    "1470": " ମାତା",
    "1471": "ଷ୍ଟି",
    "1472": " ଦେଲେ",
    "1473": " ବିଜୟ",
    "1474": " ଯୋଜନା",
    "1475": " ରଥ",
    "1476": " ଜଗନ୍ନାଥ",
    "1477": " ମଠ",
    "1478": " ରହେ",
    "1479": "ହୀନ",
    "1480": " କମି",
    "1481": "ଯେ",
    "1482": "ଟ୍ରେ",
    "1483": "ମିଆ",
    "1484": " ଅଣସର",
    "1485": "କେଣ୍ଡ",
    "1486": " ବ୍",
    "1487": " ଦେଖ",
    "1488": "ଶିଷ୍ଟ",
    "1489": " ଆମ",
    "1490": " ‘",
    "1491": "ଲ୍‌",
    "1492": "ଭୟ",
    "1493": "ଦେବଙ୍କ",
    "1494": " ଦୁଇଟି",
    "1495": " ଚତୁ",
    "1496": " ଖୋଦିତ",
    "1497": " ରାମ",
    "1498": " ଆଧ",
    "1499": " “",
    "1500": " ସହରର",
    "1501": " କରାଯାଉ",
    "1502": " ନୁହେଁ",
    "1503": "ଗୋଳ",
    "1504": "କ୍ରିୟା",
    "1505": " ଶକ୍ତି",
    "1506": " ଅସ୍ଥି",
    "1507": "ଅଧିକାଂଶ",
    "1508": " ଲି",
    "1509": "ୟଣ",
    "1510": " ମନୋ",
    "1511": "ୟନ",
    "1512": " ୧୭",
    "1513": "ସନ୍",
    "1514": "ର୍ମା",
    "1515": "ପ୍ରତି",
    "1516": " ଓଜନ",
    "1517": " ତରଳ",
    "1518": "ରୋଗ",
    "1519": " ଥର",
    "1520": "୫ରେ",
    "1521": " ସଙ୍ଗୀତ",
    "1522": "ସମୁ",
    "1523": " ମହାରା",
    "1524": " ମିଳେ",
    "1525": " ରୋଗର",
    "1526": "୍ଵ",
    "1527": " ପ୍ରଦେଶ",
    "1528": "ଷା",
    "1529": "େତା",
    "1530": " ଅକ୍କିନେନି",
    "1531": "େଶ୍ୱର",
    "1532": " ପ୍ରେମ",
    "1533": "ଟ୍ଟ",
    "1534": " ମାଧ୍ୟ",
    "1535": "ଏହାପରେ",
    "1536": " ନୂଆ",
    "1537": "ଶମ",
    "1538": "ାନନ୍ଦ",
    "1539": " ବଢ଼ି",
    "1540": " ୟ",
    "1541": " ଜିତି",
    "1542": "ତୃ",
    "1543": " ଗାଆଁ",
    "1544": " ନିର୍ବାଚନ",
    "1545": " ମଧ",
    "1546": " ଅଅଁଳା",
    "1547": " ଶ୍ରେଷ୍ଠ",
    "1548": " ଲକ୍ଷ୍",
    "1549": "ବିଧା",
    "1550": " ସ୍ଥ",
    "1551": "ନ୍ଦୁ",
    "1552": " କ୍ଷ୍ମେର୍",
    "1553": " ସୂର୍ଯ୍ୟ",
    "1554": "ୋଧ",
    "1555": "ର୍ଷଣ",
    "1556": "ାନୁ",
    "1557": " ଚିତ୍ରଶାଳ",
    "1558": " କାନ୍ଥରେ",
    "1559": "ଙ୍କଦ୍ଵାରା",
    "1560": " ଗ୍ରୀ",
    "1561": "ତେବେଳେ",
    "1562": "ରୁଦ୍ଧାର",
    "1563": "ଛା",
    "1564": "ର୍ଥ",
    "1565": "୍ୟରେ",
    "1566": " ସ୍ତ",
    "1567": "ାନ୍ୟ",
    "1568": " ସିଂହ",
    "1569": "ଣରେ",
    "1570": "ଦିଆ",
    "1571": "ାବେ",
    "1572": " ସରକାରୀ",
    "1573": " ନିୟ",
    "1574": "ସୋ",
    "1575": " ଅଙ୍କ",
    "1576": "ଦାୟ",
    "1577": " ସାଧାରଣତଃ",
    "1578": " ବର",
    "1579": " ଜିଲ୍ଲାରେ",
    "1580": "ିନି",
    "1581": "ନ୍ତର୍",
    "1582": " ପ୍ରଯ",
    "1583": " ଗୀତ",
    "1584": " ମହାନ୍ତି",
    "1585": "ଗ୍ରହ",
    "1586": ".୧",
    "1587": "ପ୍ରିୟ",
    "1588": "ାମୁ",
    "1589": " ଦୁର୍",
    "1590": "୧ରେ",
    "1591": " ସୀ",
    "1592": "ଅକ୍",
    "1593": " କର୍",
    "1594": "୯ରେ",
    "1595": " ମାଆ",
    "1596": "ଗଲେ",
    "1597": " ହାସଲ",
    "1598": " ପାଇଥିଲେ",
    "1599": " ତାମି",
    "1600": " ପୁନଃ",
    "1601": "ଭଳି",
    "1602": "ତ୍ମ",
    "1603": "୮ରେ",
    "1604": " ବିକ",
    "1605": " କର୍ମ",
    "1606": " ସୁଗ",
    "1607": " ଝା",
    "1608": "ମିତ୍ର",
    "1609": " ନ୍ୟାୟ",
    "1610": " ଅଦା",
    "1611": " ୧୯୬",
    "1612": "ଅଛି",
    "1613": "ଟଣା",
    "1614": "ଲକ",
    "1615": " ବିଦ୍ୟାଳୟ",
    "1616": " ଅନୁଷ୍ଠିତ",
    "1617": "ଳକ",
    "1618": "ଦନ୍ତୀ",
    "1619": " ସେମାନଙ୍କ",
    "1620": " ପାଖରେ",
    "1621": "ସୀ",
    "1622": " ସମସ",
    "1623": " ଚାରି",
    "1624": "ଦଶ",
    "1625": " ଦୀର୍",
    "1626": " ଦୀର୍ଘ",
    "1627": " କଳ",
    "1628": "ଦର୍ଶନ",
    "1629": " ଢ",
    "1630": " କିଲୋ",
    "1631": " ଯୁଦ୍ଧ",
    "1632": "ୁତି",
    "1633": " କେହି",
    "1634": "ଥିବାର",
    "1635": " ପ୍ରଦାନ",
    "1636": "ଲ୍ଲେଖ",
    "1637": " କରାଇ",
    "1638": " ପୁନରୁଦ୍ଧାର",
    "1639": " ଶାସ",
    "1640": "କ୍ଷାଂଶ",
    "1641": " ଶ୍ରେଣୀ",
    "1642": "ଳନ",
    "1643": " ଗବେଷ",
    "1644": "ଣ୍ଟା",
    "1645": "ଗଣନା",
    "1646": "ନିର୍",
    "1647": " ଦେବତା",
    "1648": " ପଦ୍ମ",
    "1649": " ପାଖ",
    "1650": " ଘର",
    "1651": "ାର୍ଥ",
    "1652": "ସ୍ର",
    "1653": " ପାଣି",
    "1654": " ଉତ୍ସବ",
    "1655": "ମର",
    "1656": "ଦୁ",
    "1657": "ାରୀରିକ",
    "1658": "ଦରେ",
    "1659": "ଲଣ୍ଡ",
    "1660": "ଟ୍ୟ",
    "1661": "ଳୁ",
    "1662": "ପାଳ",
    "1663": " ଫୁଟ",
    "1664": " ଷ୍ଟ",
    "1665": " ଯେଉଁଥିରେ",
    "1666": " ପେଟ",
    "1667": " ହଜ",
    "1668": "ମ୍ବାର",
    "1669": " ପୁଅ",
    "1670": "ଭେମ୍ବର",
    "1671": "ସାଇ",
    "1672": "ଟ୍ର",
    "1673": "ନଳୀ",
    "1674": "ରିତ",
    "1675": " ଟାଇ",
    "1676": " ଭାଇ",
    "1677": " କର୍କଟ",
    "1678": " ଅଭିନେତ୍ର",
    "1679": " ଅଭିନେତ୍ରୀ",
    "1680": " ମୁଖ",
    "1681": " ସ୍କୁ",
    "1682": " ପାଉ",
    "1683": "ଫେ",
    "1684": " ଜୁ",
    "1685": "କ୍ସ",
    "1686": " ନୀତି",
    "1687": ".ଏ",
    "1688": "ସେମ୍ବର",
    "1689": " ସେବନ",
    "1690": " ଅପରେଶନ",
    "1691": "ପାତ୍ର",
    "1692": " ନଦୀ",
    "1693": " ଅବଦାନ",
    "1694": " ।।",
    "1695": " ସ୍ନାୟୁ",
    "1696": "ସ୍‍ଙ୍କ",
    "1697": "ତନ୍ତ୍ର",
    "1698": " ମଣ୍ଡଳୀ",
    "1699": ".ମି.",
    "1700": " ଦ୍ର",
    "1701": "ଷ୍ମ",
    "1702": " ଶୁକ୍ଳ",
    "1703": " ହିନ୍ଦୁ",
    "1704": " ବିଷ୍ଣୁଙ୍କ",
    "1705": "କ୍ଷର",
    "1706": "ୁଥିବା",
    "1707": " ପଡ଼ି",
    "1708": "ଯାୟୀ",
    "1709": " ମନ",
    "1710": "କ୍ରମେ",
    "1711": " ଶତାବ୍ଦ",
    "1712": " ଶତାବ୍ଦୀର",
    "1713": "ମନ",
    "1714": " ବର୍ତ୍ତ",
    "1715": " ବର୍ତ୍ତମାନ",
    "1716": " ପରିଚିତ",
    "1717": "ସର୍",
    "1718": "ଷ୍ଠା",
    "1719": " କରୁଥିଲେ",
    "1720": "ଜୁ",
    "1721": " ଉଲ୍ଲେଖ",
    "1722": " କରାଗଲା",
    "1723": " ପ୍ରକାରର",
    "1724": " ଉପର",
    "1725": " କରିବାରେ",
    "1726": " ଅକ୍ଷାଂଶ",
    "1727": " ପଞ୍ଚ",
    "1728": " ହୁଅନ୍ତି",
    "1729": "ହନ୍ତି",
    "1730": "ଦାର",
    "1731": "ଭୁ",
    "1732": "ବନ୍ଧ",
    "1733": " ଯେପରିକି",
    "1734": "ତୀତ",
    "1735": "ଲ,",
    "1736": " କମ୍",
    "1737": " ଭୂମ",
    "1738": " ଦାୟ",
    "1739": "ସ୍,",
    "1740": " ଲକ୍ଷ",
    "1741": " ଆଗ",
    "1742": " ରାଷ୍ଟ୍ର",
    "1743": "ିକାଶ",
    "1744": "ଦେଇ",
    "1745": "ଘାତ",
    "1746": " ଅପ",
    "1747": " ସଙ୍କଟ",
    "1748": " ଜ୍ୱ",
    "1749": " ଉପଦେଶ",
    "1750": " ହ୍ର",
    "1751": "ଡ୍",
    "1752": " ଖେଳାଳି",
    "1753": "ଜର",
    "1754": "ଣ୍ଟର",
    "1755": " ପାଳିତ",
    "1756": "ଥାଆନ୍ତି",
    "1757": "ଠାକୁର",
    "1758": " ପତନ",
    "1759": " ଜନଗଣନା",
    "1760": " ୧୯୪",
    "1761": " ଡିଗ୍ରୀ",
    "1762": "ଭାରତୀୟ",
    "1763": ".ଆଇ",
    "1764": ".ଆଇ.",
    "1765": " ଅଧିକାର",
    "1766": " ବାରମ୍ବାର",
    "1767": "ଟୀ",
    "1768": " କରିଥାଏ",
    "1769": " ଘା",
    "1770": " ୨୫",
    "1771": " ନଭେମ୍ବର",
    "1772": " ଅଭିନେତା",
    "1773": "ସ୍‌",
    "1774": "ମ୍‌",
    "1775": "ୟାର",
    "1776": " ତାମିଲ",
    "1777": " ଦର",
    "1778": " ବାହାରି",
    "1779": " କମ୍ପ",
    "1780": "ଣ୍ଣା",
    "1781": "ାନ୍ତ",
    "1782": " ହେଉଛନ୍ତି",
    "1783": "ଜଗନ୍ନାଥ",
    "1784": " ଶ୍ରୀମନ୍ଦିର",
    "1785": " ଧାରା",
    "1786": " ମହାବିଦ୍ୟାଳୟ",
    "1787": " ବୟସରେ",
    "1788": " ୫୦",
    "1789": "ଣ୍ଡୋ",
    "1790": "ନିଆ",
    "1791": " କବିତା",
    "1792": "ଅଗ୍ନି",
    "1793": " ମହାପାତ୍ର",
    "1794": " ଜାମିନ",
    "1795": " ଅଲି",
    "1796": "ଅଙ୍ଗ",
    "1797": " ଅଚ୍ୟୁତ",
    "1798": "ନସନ",
    "1799": " ଉପାଦେ",
    "1800": " ଉପାଦେୟ",
    "1801": "ଏହାକୁ",
    "1802": " ଯୁକ୍ତ",
    "1803": " ଶିବ",
    "1804": "ପତ୍ର",
    "1805": "ିଏ",
    "1806": " ଅଲଗା",
    "1807": " ଫା",
    "1808": " ସଂସ୍କ",
    "1809": " ନୂତନ",
    "1810": "ଚ୍ଛା",
    "1811": "ବୃ",
    "1812": " (୧",
    "1813": "ସ୍ଥଳୀ",
    "1814": "ପୂର୍ବ",
    "1815": " ସ୍ଥାପତ୍ୟ",
    "1816": " ଦୃ",
    "1817": " ଚେଷ୍ଟା",
    "1818": " ଶିଳା",
    "1819": " ଯୋଗୁଁ",
    "1820": " ଅଧିକାଂଶ",
    "1821": "ଳିତ",
    "1822": " କରାଯାଇଥିବା",
    "1823": " ଭ୍ର",
    "1824": " ନଷ୍ଟ",
    "1825": " ପରିଚ",
    "1826": "ଭ୍ୟ",
    "1827": "ାନର",
    "1828": "ଷଣ",
    "1829": " ଚନ୍ଦ୍ର",
    "1830": " ଚର୍ମ",
    "1831": "ପ୍ରଥ",
    "1832": "ଦେଲେ",
    "1833": " ୧୦୦",
    "1834": "ଯିବା",
    "1835": " ପକ",
    "1836": " ପକାଇ",
    "1837": " ମସିହାର",
    "1838": "ାବଧାନ",
    "1839": " ସ୍ପ",
    "1840": " ବୃଦ୍ଧି",
    "1841": " ସେବା",
    "1842": " ବଦ",
    "1843": "ିନୀ",
    "1844": "ଷ୍ପ",
    "1845": "ତାପ",
    "1846": "ରିକାରେ",
    "1847": "ଖାପା",
    "1848": "ଖାପାଖି",
    "1849": " (ଜନ୍ମ",
    "1850": "ସାବ",
    "1851": " ଇଂଲଣ୍ଡ",
    "1852": "ବାଧିକ",
    "1853": " ଅବସର",
    "1854": " ଦଳର",
    "1855": " ନିଜେ",
    "1856": " ଆନ୍ତର୍",
    "1857": "ଘର",
    "1858": "ଉର",
    "1859": "ଙ୍ଗାବାଦ",
    "1860": " ଜନସଂଖ୍ୟା",
    "1861": ".୨",
    "1862": "୧%",
    "1863": " କିଲୋମିଟର",
    "1864": " ଏସ",
    "1865": " ପାରେ",
    "1866": " )",
    "1867": " ଅଷ୍ଟ",
    "1868": "ଅମ",
    "1869": "ହାରୀ",
    "1870": " ଜରିଆ",
    "1871": " ଜରିଆରେ",
    "1872": "୫୯",
    "1873": " ମାଧ୍ୟମରେ",
    "1874": "ଉଣୀ",
    "1875": "ଠୁ",
    "1876": " ହୁଏ,",
    "1877": " ଅନୁଭବ",
    "1878": "ହାରେ",
    "1879": " କଥାଚିତ୍ରରେ",
    "1880": "ଅକ୍ଷୟ",
    "1881": " ଓଡ଼ିଶାରେ",
    "1882": " ଅକ୍ଷୟ",
    "1883": "ବ୍ର",
    "1884": " ପାପ",
    "1885": " ପ୍ରତିନି",
    "1886": " ବର୍ଣ୍ଣନା",
    "1887": "ଢି",
    "1888": " ଲାଗେ",
    "1889": " ବିଜ୍ଞାନ",
    "1890": " ପଟ୍ଟ",
    "1891": "ରୁଣା",
    "1892": " ଯାଉ",
    "1893": " ପୃଥିବ",
    "1894": "ସାଦ",
    "1895": " ଗଳ୍ପ",
    "1896": " ଡିସେମ୍ବର",
    "1897": "‌ହାର",
    "1898": "ସ୍ରା",
    "1899": "ଠିକ",
    "1900": "ହାଣ",
    "1901": " ହେଇଥିଲା",
    "1902": " ଧାରଣ",
    "1903": "ପୋର୍",
    "1904": "ର୍ଡ",
    "1905": " ପୋକ",
    "1906": " ସ୍ତର",
    "1907": "ଠର",
    "1908": " |",
    "1909": " ପ୍ରଧାନମନ୍ତ୍ରୀ",
    "1910": " ଦ୍ବାରା",
    "1911": " ହର୍",
    "1912": "ମ୍ଭୀର",
    "1913": "‍ଇ",
    "1914": " କଣ୍ଠ",
    "1915": " ବିଧାନ",
    "1916": " ଉଦ୍",
    "1917": " ବିଶିଷ୍ଟ",
    "1918": "ନାମ",
    "1919": "ଶର",
    "1920": " ଏକାଦଶୀ",
    "1921": "ୌରା",
    "1922": "ସ୍ୱ",
    "1923": " ଭଗବାନ",
    "1924": " ପ୍ରତିମା",
    "1925": "ପନ",
    "1926": " ଭେ",
    "1927": " କରୁଛନ୍ତି",
    "1928": " ସତ୍ୟ",
    "1929": " ଅନୁଯାୟୀ",
    "1930": " ନିକଟରେ",
    "1931": "ଟର୍",
    "1932": " ରାଜଧାନ",
    "1933": " ରାଜଧାନୀ",
    "1934": " ମନ୍ଦିରରେ",
    "1935": " ବେଳକୁ",
    "1936": " ପାର୍ଶ୍ଵ",
    "1937": "ସିଦ୍ଧ",
    "1938": "ମନ୍ଦିରର",
    "1939": " ତ୍ର",
    "1940": "୍ରୀଷ୍ଟ",
    "1941": " ନିଜର",
    "1942": " କାରୁ",
    "1943": "ନ୍ଦର",
    "1944": " ଅଞ୍ଚଳରେ",
    "1945": " ବସ",
    "1946": " ଛାଡି",
    "1947": " ପ୍ରମାଣ",
    "1948": " ଅସ",
    "1949": " ୧୯୯୦",
    "1950": "ଣ୍ଠି",
    "1951": " ଦ୍ରା",
    "1952": " ଦ୍ରାଘ",
    "1953": "ିମା",
    "1954": " ରହିଥିଲା",
    "1955": " ମୌ",
    "1956": "ଘା",
    "1957": " ମାଂସ",
    "1958": "ପେଶୀ",
    "1959": " ମତରେ",
    "1960": "ଲର",
    "1961": " ଯିବା",
    "1962": " ପଦାର୍ଥ",
    "1963": " ମିଟର",
    "1964": "ୋଟି",
    "1965": "ପାରିବ",
    "1966": " ପରା",
    "1967": "କୃଷ୍ଣ",
    "1968": "ମୂ",
    "1969": "୧୯୬",
    "1970": "ଯାଇଥିଲା",
    "1971": "ାରମ୍ଭ",
    "1972": " ବିକାଶ",
    "1973": " ଉନ୍ନ",
    "1974": ".୦",
    "1975": " ବୟସ୍କ",
    "1976": "ଇବା",
    "1977": " ରୁ",
    "1978": " ହିସାବ",
    "1979": " ଶତକ",
    "1980": " ସର୍ବାଧିକ",
    "1981": "ୟିକା",
    "1982": " ମାନେ",
    "1983": ".୩",
    "1984": "ସମୁଦ୍ର",
    "1985": " ପତନଠାରୁ",
    "1986": "ସେଥିରୁ",
    "1987": " ବୟସରୁ",
    "1988": " ଅନୁଗୋଳ",
    "1989": " ସମ୍ବନ୍ଧ",
    "1990": "ଶିଶୁ",
    "1991": " ଉପକାର",
    "1992": "କ୍ତା",
    "1993": "ଲାଣ୍ଡ",
    "1994": " ଡେ",
    "1995": " ଜୀ",
    "1996": " ନାଗା",
    "1997": " ମେନ",
    "1998": " ନାଗେଶ୍ୱର",
    "1999": "ନାଗାର୍ଜୁନ",
    "2000": "ମ୍ୱ",
    "2001": " ବନ୍ଧୁ",
    "2002": " ଅଛନ୍ତି",
    "2003": " ଅନ୍ୟତମ",
    "2004": " ପରାମ",
    "2005": " ପରାମର୍ଶ",
    "2006": "ଲ୍ୟ",
    "2007": "କିଛି",
    "2008": "ତ୍ଵର",
    "2009": "ୂତ",
    "2010": " ପୁରାଣ",
    "2011": " ଧୂ",
    "2012": "ନ୍ଦନ",
    "2013": " ପଟ୍ଟନାୟକ",
    "2014": " ନିଉ",
    "2015": " ପରିସ୍ରା",
    "2016": "ଭର",
    "2017": " ବଞ୍ଚ",
    "2018": " ଉପଶମ",
    "2019": " ବଂଶର",
    "2020": "ଗଡ଼",
    "2021": " ଅଲିମ୍ପ",
    "2022": "ଅଚ୍ୟୁତ",
    "2023": " ପାରି",
    "2024": " ପ୍ରତିନିଧ",
    "2025": " ପ୍ରତିନିଧିତ୍",
    "2026": "ିତାରେ",
    "2027": " ଏଥେ",
    "2028": " ହୋ‍ଇ",
    "2029": " ମିଗ୍ରେ",
    "2030": " ଅନଙ୍ଗ",
    "2031": " ଦେଖିବାକୁ",
    "2032": "କ,",
    "2033": "ିତ୍ତ",
    "2034": "ମ୍ଳ",
    "2035": " ଅନି",
    "2036": "ୀ,",
    "2037": " ଭକ୍ତ",
    "2038": " ସେମାନେ",
    "2039": " ଲକ୍ଷ୍ମୀ",
    "2040": "ବତୀ",
    "2041": " ଉଭୟ",
    "2042": " ପହଞ୍ଚି",
    "2043": "ୋଡିଆ",
    "2044": "୍ୟର",
    "2045": " ପର୍ଯ୍ୟଟକ",
    "2046": " ଶିଖର",
    "2047": " ଯାହାକି",
    "2048": "ୁନିକ",
    "2049": "କଥା",
    "2050": " ଦୈ",
    "2051": " ଏଠାରେ",
    "2052": "ଳ୍ପୀ",
    "2053": " କାରୁକାର୍ଯ୍ୟ",
    "2054": "ପଦ",
    "2055": "ନାରେ",
    "2056": "ୋହ",
    "2057": "ପ୍ରାପ୍ତ",
    "2058": "ଆମେ",
    "2059": "ଣ୍ଡର",
    "2060": "ହୁଏ",
    "2061": " ରଖିବା",
    "2062": "ପାତ",
    "2063": " ସ୍ଥିର",
    "2064": "ଅତି",
    "2065": " ଦ୍ଵାର",
    "2066": " ପଟର",
    "2067": " ବଡ",
    "2068": " ସଦ",
    "2069": " ୭୦",
    "2070": "ର୍ତ୍ତ",
    "2071": " ସଂସ୍ଥା",
    "2072": " ଦଶ",
    "2073": "ୀଙ୍କ",
    "2074": " ସନ୍ତ",
    "2075": "ଜ୍ଞାନିକ",
    "2076": " ପର୍ଯ୍ୟଟ",
    "2077": " ତତ୍ତ୍ଵ",
    "2078": "ର୍ଚ୍ଚ",
    "2079": " ଜନିତ",
    "2080": "ସିୟ",
    "2081": "ଷେ",
    "2082": "ଷେଧ",
    "2083": "ୟାମ",
    "2084": "ଅଣ",
    "2085": " କଟକ",
    "2086": " ପାଖାପାଖି",
    "2087": " ରଣ",
    "2088": " ପ୍ରଯୋଜନା",
    "2089": "ୈଳ",
    "2090": "ାଇଥିଲେ",
    "2091": "ଯାଇଥାଏ",
    "2092": " କାଳରେ",
    "2093": "ଉରଙ୍ଗାବାଦ",
    "2094": " ଅନୁସାରେ,",
    "2095": "ଅଟେ",
    "2096": "ପୁରୁଷ",
    "2097": "ପ୍ରାୟ",
    "2098": " ବାର୍",
    "2099": "ଷିକ",
    "2100": "ହାରି",
    "2101": ".ଆଇ.ଡି",
    "2102": ".ଆଇ.ଡି.",
    "2103": " ନିର୍ଦ୍ଦିଷ୍ଟ",
    "2104": "ହୋଇ",
    "2105": "ାରରେ",
    "2106": "ଜାତି",
    "2107": " ଓଡ଼ିଶା",
    "2108": "ାଇନ",
    "2109": "ଫୋ",
    "2110": " କରିବାର",
    "2111": " ଚୈତନ୍ୟଙ୍କର",
    "2112": " ଅଭିନୀତ",
    "2113": " ଝିଅ",
    "2114": "ଖିଳ",
    "2115": "ଣିବା",
    "2116": "ଅଜୟ",
    "2117": " ଯାହାର",
    "2118": " ଲୋକପ୍ରିୟ",
    "2119": " କୁମାର",
    "2120": " ପ୍ରାପ୍ତ",
    "2121": " ତାକୁ",
    "2122": " ମଇ",
    "2123": " ୟୁ",
    "2124": "ନ୍ୟାସ",
    "2125": " ଅଭାବ",
    "2126": " ସ୍ୱା",
    "2127": " ଏକାଡେ",
    "2128": "ଡ଼େ",
    "2129": " ବ୍ୟବ‌ହାର",
    "2130": "କାଳୀନ",
    "2131": "ଟିସ",
    "2132": "ଘ୍ର",
    "2133": " ରୋଗୀଙ୍କ",
    "2134": " ଉପଚାର",
    "2135": " ଦାସ,",
    "2136": " ମହାଦେବ",
    "2137": " ଭାଙ୍ଗ",
    "2138": " ରିପୋର୍",
    "2139": "ଯିବ",
    "2140": " ଉପଯୋଗ",
    "2141": "ଙ୍କୁଶକ",
    "2142": "ଙ୍କୁଶକୃ",
    "2143": " ସମ୍ଭାବ",
    "2144": " ସମ୍ଭାବନା",
    "2145": "ଯେଉଁ",
    "2146": " ଆଶ୍ରମ",
    "2147": "ିଲ",
    "2148": "ଣାରେ",
    "2149": "ପ୍ରୋ",
    "2150": " ହକି",
    "2151": "ଯଦି",
    "2152": "ମ୍ମ",
    "2153": "ଗଡ",
    "2154": " ଅଞ୍ଜ",
    "2155": " ପେନସନ",
    "2156": "ନାଲ",
    "2157": "କିସ୍ତ",
    "2158": " ଅଦିତି",
    "2159": " ଉପକାରୀ",
    "2160": " ରୋଗୀଙ୍କର",
    "2161": " କୁମ୍ଭୀର",
    "2162": "ମାଳ",
    "2163": " ପିଲା",
    "2164": " ଜୟ",
    "2165": "ଥମିକ",
    "2166": " ମିଳିଥାଏ",
    "2167": "ଓଡ଼ି",
    "2168": " ଧା",
    "2169": "ଳ,",
    "2170": " ଦା",
    "2171": " ମୂତ୍ରା",
    "2172": " ବାୟୁ",
    "2173": "ଶୋ",
    "2174": "ନୋଟି",
    "2175": " ଭିତରୁ",
    "2176": "ୌରାଣିକ",
    "2177": "ତ୍ୟେକ",
    "2178": "କଳ୍ପ",
    "2179": "ଥରେ",
    "2180": " ହରି",
    "2181": " ସ୍ନାନ",
    "2182": "ମ୍ଵୋଡିଆ",
    "2183": ".୬",
    "2184": " ଐ",
    "2185": " ପ୍ରତିଷ୍ଠା",
    "2186": "କଳା",
    "2187": "ଜ୍ଜ",
    "2188": " ଉଠ",
    "2189": "ପିତ",
    "2190": "ଦ୍ଧା",
    "2191": " ଶତାବ୍",
    "2192": " ଶତାବ୍ଦୀ",
    "2193": "ୂନ୍ୟ",
    "2194": " ମହାନ",
    "2195": " ଏଞ୍ଜ",
    "2196": " ଇତିହା",
    "2197": " ମିଳିଥିଲା",
    "2198": " ପଡି",
    "2199": "୧୯୭",
    "2200": " କାଠ",
    "2201": " ନିମ୍ନ",
    "2202": " ମନ୍ଦିରକୁ",
    "2203": " ଗ୍",
    "2204": " ପ୍ରସ୍ତର",
    "2205": " ଶୋ",
    "2206": "ନିର୍ମାଣ",
    "2207": "ରୂ",
    "2208": "୨୦",
    "2209": " ପରବର୍ତ୍ତୀ",
    "2210": " ବ୍ୟତୀତ",
    "2211": " ପାହା",
    "2212": "କରେ",
    "2213": "ୁକ୍ତ",
    "2214": " ତେଣୁ",
    "2215": "ମଧ୍ୟ",
    "2216": "ଭ୍",
    "2217": "ରମ",
    "2218": " ସେଣ୍ଟି",
    "2219": " ଶରୀର",
    "2220": " ନିଆ",
    "2221": " ବହୁଳ",
    "2222": " ରକ୍ଷଣ",
    "2223": " ଗଠନ",
    "2224": " ଲୁଣ",
    "2225": "ନ୍,",
    "2226": " ୨୦୧୨",
    "2227": " ସଂଖ୍ୟ",
    "2228": " ସଂଗ",
    "2229": "ଅତ୍ୟ",
    "2230": "ଅତ୍ୟଧିକ",
    "2231": " ଶାରୀରିକ",
    "2232": " ହାଇପର",
    "2233": "୫%",
    "2234": " ମାନଙ୍କ",
    "2235": " ବିରୁଦ୍ଧ",
    "2236": " ରହିଥିଲେ",
    "2237": "ସ୍ୟ",
    "2238": " ଆନ୍ତର୍ଜାତୀୟ",
    "2239": " ନାୟିକା",
    "2240": "ନେଟ",
    "2241": " ପୂର୍ଣ୍ଣିମା",
    "2242": "େତ",
    "2243": " କୃଷି",
    "2244": " ବିଜେ",
    "2245": " ହାତରେ",
    "2246": " ଦ୍ରାଘିମ",
    "2247": " ଦ୍ରାଘିମାରେ",
    "2248": " ଉଚ୍ଚତାରେ",
    "2249": " ସାକ୍ଷର",
    "2250": " ସାକ୍ଷରତା",
    "2251": " ହାରା",
    "2252": " ହାରାହାରି",
    "2253": "ଭୂମି",
    "2254": " ସୂଚନା",
    "2255": " ଘଣ୍ଟା",
    "2256": "ନେଟିକ",
    "2257": "ଯ୍ୟା",
    "2258": " ଶ୍ଵ",
    "2259": " ସ୍ତ୍ରୀ",
    "2260": " ମୂଳ",
    "2261": " ଜାତି",
    "2262": "ନ୍ତ୍ରଣ",
    "2263": " ଗୌ",
    "2264": " ଘଟି",
    "2265": " ପସ",
    "2266": " କଲେଜ",
    "2267": " ବ୍ୟବସାୟ",
    "2268": " ଇଞ୍ଜ",
    "2269": " ଯିଏ",
    "2270": " ଭାଗରେ",
    "2271": "୍ରମ",
    "2272": " କମ୍ପାନ",
    "2273": " କ୍ରୀ",
    "2274": "ଷ୍ଣ",
    "2275": "ତ୍ନୀ",
    "2276": " ରକ୍ଷା",
    "2277": "ଯାହା",
    "2278": " ଆଘାତ",
    "2279": " ବୁଝ",
    "2280": " ହଳ",
    "2281": "ୂର",
    "2282": "ମହା",
    "2283": "୫୭",
    "2284": "ଳିକ",
    "2285": " ଗ୍ରାମରେ",
    "2286": "କଟି",
    "2287": " ତାରି",
    "2288": " ରଚିତ",
    "2289": "ାଇମ",
    "2290": " ଫାଇ",
    "2291": " ମଳ",
    "2292": "ୁରୀ",
    "2293": " (ଇଂରାଜୀରେ",
    "2294": " କମିଯାଏ",
    "2295": " ଯଦି",
    "2296": "୍ୟୁଟ",
    "2297": " ଚର୍",
    "2298": "ମେଜି",
    "2299": " ରାସ୍",
    "2300": " ଦୃଷ୍ଟି",
    "2301": "ତ୍ରେ",
    "2302": " ସେବକ",
    "2303": " ଅକ୍ଷମତା",
    "2304": "ଏଣୁ",
    "2305": " ପ୍ରୟ",
    "2306": "ଟିକା",
    "2307": "ଅଙ୍କ",
    "2308": "ଜରା",
    "2309": "ଙ୍କୁଶକୃମି",
    "2310": " ଆଫ",
    "2311": "ୋଲ",
    "2312": " ଗତି",
    "2313": "ାଳାମୁ",
    "2314": "ାଳାମୁଖ",
    "2315": " ସଙ୍ଗେ",
    "2316": " ରନ",
    "2317": " ଅଧିନାୟକ",
    "2318": " ପ୍ରତିଯୋଗିତାରେ",
    "2319": " ନେତୃ",
    "2320": " ୱାଦେ",
    "2321": " ୱାଦେକର",
    "2322": " ଦିଅ",
    "2323": "ଅଞ୍ଜୁମ",
    "2324": " ଗୋଟେ",
    "2325": " ଟ୍ରିଗର",
    "2326": " ଚକ୍ରିକା",
    "2327": " ଅପରେଶନ୍",
    "2328": "ସ୍‍ଙ୍କୁ",
    "2329": "ସେକେଣ୍ଡ",
    "2330": " ପ୍ରାଥମିକ",
    "2331": " ମଧ୍ୟମ",
    "2332": " ଆକାରରେ",
    "2333": " ସାନ",
    "2334": "ତା,",
    "2335": "ପ୍ରଦ",
    "2336": " ବିଶ୍ୱାସ",
    "2337": " ସ୍ଥାପନ",
    "2338": "ପକ୍ଷ",
    "2339": " ଯୁଗ",
    "2340": " ବିଶ୍ଵାସ",
    "2341": "ନନ୍ଦ",
    "2342": "ାମୀ",
    "2343": " ସାମଗ୍ରୀ",
    "2344": " ସମସ୍ୟା",
    "2345": " ତଳେ",
    "2346": "ପଟେ",
    "2347": " କାମ୍ଵୋଡିଆ",
    "2348": "ମ୍ପୁ",
    "2349": " ସୂର୍ଯ୍ୟବର୍",
    "2350": " ବୌ",
    "2351": " ବୌଦ୍ଧ",
    "2352": " ଉତ୍ତମ",
    "2353": " ପରିଗଣ",
    "2354": " ପରିଗଣିତ",
    "2355": " ଦୃଶ୍ୟ",
    "2356": " ପର୍ବତ",
    "2357": " ଚିତ୍ରଶାଳା",
    "2358": " ଦିଗ",
    "2359": " କୈ",
    "2360": " ପ୍ରସିଦ୍ଧ",
    "2361": " ଆଧୁନିକ",
    "2362": " ପୁଣି",
    "2363": "ଥିରୁ",
    "2364": " ପ୍ରକୃତ",
    "2365": " ସମୟର",
    "2366": " ରାତିରେ",
    "2367": " ତ୍ରୟୋ",
    "2368": "‍ଙ୍କ",
    "2369": " ବିବେ",
    "2370": " ଜଣାପ",
    "2371": "ତାହା",
    "2372": "ବର୍ତ୍ତି",
    "2373": " ଭଗ୍",
    "2374": " ଜଙ୍ଗ",
    "2375": "ଫ୍ୟୁ",
    "2376": "ତ୍ସବ",
    "2377": "ସ୍ଥାର",
    "2378": " ବିଦେଶ",
    "2379": " ଏପରି",
    "2380": " ସମ୍ପର୍କୀୟ",
    "2381": "ସବୁ",
    "2382": " ଶାସନ",
    "2383": "ମୁଖ୍ୟ",
    "2384": "ଚେରୀ",
    "2385": " ତଳ",
    "2386": " ଦଣ୍ଡ",
    "2387": " ଦେଖି",
    "2388": " ଅଗ୍ର",
    "2389": " କରିଛି",
    "2390": "ଲୁକା",
    "2391": "ଢିବା",
    "2392": " ମାଂସପେଶୀ",
    "2393": "ଙ୍ଗୀ",
    "2394": " ମି.",
    "2395": " ମନୁ",
    "2396": " ମନୁଷ୍ୟ",
    "2397": " ପଟେ",
    "2398": " ସବୁଠାରୁ",
    "2399": " ସାମାନ୍ୟ",
    "2400": " ବାହ",
    "2401": " ରଖା",
    "2402": " ସେଥିରେ",
    "2403": "ବଣ",
    "2404": " ବାସୁ",
    "2405": " ଅତ୍ୟନ୍ତ",
    "2406": " ଖରା",
    "2407": " ଖରାପ",
    "2408": "ଟ୍ରି",
    "2409": "ଣ୍ଟ୍",
    "2410": " ଦାୟିତ୍",
    "2411": " କରିଦିଆ",
    "2412": "ହାୟ",
    "2413": "ଲୋଚନା",
    "2414": " ବିଭ",
    "2415": " ବୈଜ୍ଞାନିକ",
    "2416": " ସାର",
    "2417": " ଫି",
    "2418": "୨୦୦୧",
    "2419": " ସୁବିଧା",
    "2420": "ହୁରି",
    "2421": "ଷ୍କ",
    "2422": " ଭୂମିକା",
    "2423": " ଏସିଆ",
    "2424": " ବେମାରୀ",
    "2425": " ମାନସିକ",
    "2426": " ଧୀରେ",
    "2427": " ନେବା",
    "2428": " କାର",
    "2429": "ଟସ",
    "2430": " ହିସାବରେ",
    "2431": " ୱେ",
    "2432": " ଖୁବ",
    "2433": " ବିରୁଦ୍ଧରେ",
    "2434": " ନିର୍ଦ୍ଦେଶନାରେ",
    "2435": "ଭୂତି",
    "2436": " ଆଣି",
    "2437": "ଣ୍ଡରେ",
    "2438": "ଦିଅଁ",
    "2439": " ବୀର",
    "2440": " ପରୁଷ",
    "2441": " ମହାରାଷ୍ଟ୍ର",
    "2442": " ଆଠ",
    "2443": "ାଇଫ",
    "2444": "ଟୁ",
    "2445": " ତତ୍",
    "2446": "ଇନ",
    "2447": " ପ୍",
    "2448": " କ୍ଷମତା",
    "2449": " ପୀଡା",
    "2450": " ଅଣୁ",
    "2451": " ଜୀବା",
    "2452": " ମିଶ",
    "2453": " ପରିବାରରେ",
    "2454": "‌ଙ୍କ",
    "2455": " ରାଓଙ୍କ",
    "2456": "ର୍ଡ଼",
    "2457": " ସ୍କୁଲ",
    "2458": " ପାଠ",
    "2459": "ଣିଜ",
    "2460": "ଜିକ",
    "2461": " ସୁଯୋଗ",
    "2462": "ାଙ୍କ",
    "2463": " ମନ୍ତ",
    "2464": "ଙ୍ଗୁ",
    "2465": " ନିର୍ଦ୍ଦେଶିତ",
    "2466": " ଅନ୍ନ",
    "2467": " ତାର",
    "2468": " ଅଫ",
    "2469": " ବିଶ୍ୱବିଦ୍ୟାଳୟ",
    "2470": " ସୁଭ",
    "2471": "ଜାନ",
    "2472": " ଇଣ୍ଡ",
    "2473": "ମାଇ",
    "2474": "ଲସ୍",
    "2475": " ଏଭଳି",
    "2476": " ମଣି",
    "2477": " ବାହାରେ",
    "2478": " କ୍ୟା",
    "2479": "ଜ୍ଞା",
    "2480": "ବାଣୀ",
    "2481": " ସ୍ତରରେ",
    "2482": " ତାହାକୁ",
    "2483": " କେବେ",
    "2484": "ର୍ଷି",
    "2485": "ବିଷ୍ୟ",
    "2486": " ଚନ୍ଦନ",
    "2487": "ସ୍ତି",
    "2488": " ଘରେ",
    "2489": "ଙ୍କି",
    "2490": "ଲିଅ",
    "2491": " ହର",
    "2492": "ସ୍ରାବ",
    "2493": " ପଞ୍ଜ",
    "2494": "ପ୍ରଭୁ",
    "2495": " \"ଅ",
    "2496": " ମାଟିରେ",
    "2497": "ବ୍ରତ",
    "2498": " ଝାଡ଼ା",
    "2499": " କ୍ରନିକ",
    "2500": "ମେଜିଙ୍ଗ",
    "2501": " ସ୍କ",
    "2502": " ଯଥା:",
    "2503": "କ୍ଷମ",
    "2504": "ବିଜୟ",
    "2505": " ପାଖକୁ",
    "2506": "ସ୍ତାର",
    "2507": "ବୟ",
    "2508": " କାରଣରୁ",
    "2509": " ତେବେ",
    "2510": " ନ୍ୟାୟାଳୟ",
    "2511": " ଆବେ",
    "2512": " ଦ୍ୱିତୀୟ",
    "2513": "ମ୍ଫା",
    "2514": " ଆସେ",
    "2515": "ଦୟ",
    "2516": "ଅଚ୍ୟୁତାନନ୍ଦ",
    "2517": "ୌପ",
    "2518": " ଟ୍ରଫି",
    "2519": "ଅଜିତ",
    "2520": "ଜାତିକ",
    "2521": " ୱିକେଟ",
    "2522": " ମେଚ",
    "2523": " ଅଲିମ୍ପିକ୍",
    "2524": " ସିରି",
    "2525": " ନିର୍ବାଚିତ",
    "2526": "କିସ୍ତାନ",
    "2527": " ଗଣ୍ଠି",
    "2528": " ଲୋକଙ୍କର",
    "2529": " ହାଡ଼",
    "2530": " ବିହୀନ",
    "2531": " ମୂତ୍ରାଶୟ",
    "2532": "ଡ଼ିଅମ",
    "2533": " ଜିଉ",
    "2534": "ଅରା",
    "2535": " ଅଧିସେକେଣ୍ଡ",
    "2536": " ଅନନ୍ତଙ୍କ",
    "2537": " ସ୍ଵତନ୍ତ୍ର",
    "2538": "କାଳରେ",
    "2539": " ବ୍ଲକ",
    "2540": " କି.ମି.",
    "2541": " ପ୍ରତିବର୍ଷ",
    "2542": " ହୋଇଥାନ୍ତି",
    "2543": "ଁଳା",
    "2544": "ଓଡ଼ିଶ",
    "2545": " କୋଳି",
    "2546": " ଶିରା",
    "2547": " ମିଶ୍ରିତ",
    "2548": " ତୃ",
    "2549": "ୟଂ",
    "2550": " ପ୍ରତିଷ୍ଠିତ",
    "2551": "ମୂର୍ତ୍ତି",
    "2552": " ନବ",
    "2553": "ଟିକୁ",
    "2554": " ଦେବାକୁ",
    "2555": " ଅସୁ",
    "2556": "ତିକି",
    "2557": " କାର୍",
    "2558": " ପ୍ରଦ",
    "2559": "ଚିଆ",
    "2560": " ବର୍ଗ",
    "2561": "ମନଙ୍କ",
    "2562": "ମେର",
    "2563": " ମନ୍ଦିରମାନଙ୍କ",
    "2564": " ସଂର",
    "2565": "କ୍ଷିତ",
    "2566": " ପତା",
    "2567": " ଆକର୍ଷଣ",
    "2568": " ତାହାର",
    "2569": " ଚତୁର୍",
    "2570": " ପ୍ରାଙ୍ଗ",
    "2571": "ାନୁସାରେ",
    "2572": " ୱାଟ୍‍",
    "2573": " ବ୍ୟବହ",
    "2574": " ବ୍ୟବହୃତ",
    "2575": " ଦେବଙ୍କ",
    "2576": " ଆଦେଶ",
    "2577": " ଲେଖିଛନ୍ତି",
    "2578": " ଅନୁପ",
    "2579": " ମୃତ୍ୟ",
    "2580": " ୱାଟ୍‍ର",
    "2581": "ବର୍ତ୍ତିତ",
    "2582": " ଆଜି",
    "2583": " ନଥିଲେ",
    "2584": "ଜଣେ",
    "2585": " କରିପାରେ",
    "2586": " ଯାତ୍ରା",
    "2587": " ଆସନ",
    "2588": "ଯାଇଥିବା",
    "2589": "ମୟ",
    "2590": " ବିପରୀ",
    "2591": " ବିପରୀତ",
    "2592": "ତେଣୁ",
    "2593": " ବାଧା",
    "2594": "ତ୍ତର",
    "2595": " ୦",
    "2596": " ପାର୍ଶ୍ଵରେ",
    "2597": " ପାଚେରୀ",
    "2598": " ଉଦ୍ଦେଶ",
    "2599": "କଙ୍କ",
    "2600": " ପ୍ରତିକ୍ରିୟା",
    "2601": "ସାରି",
    "2602": " ଫୁଲ",
    "2603": "ପ୍‍",
    "2604": " ୩୩",
    "2605": " ଫୁଟ୍",
    "2606": "ପଶ୍ଚିମ",
    "2607": "ସ୍ଥାରେ",
    "2608": " ରହିଛନ୍ତି",
    "2609": " ତୋ",
    "2610": "ପାରିବେ",
    "2611": " କ୍ଷୟ",
    "2612": " ଆଲ",
    "2613": "ଗାର",
    "2614": "ସିଂହ",
    "2615": " ପଛ",
    "2616": " ଅନ୍ତର୍ଭ",
    "2617": " ଅନ୍ତର୍ଭୁକ୍ତ",
    "2618": " ସୋପାନ",
    "2619": "ଟାଇ",
    "2620": "ପ୍ରଥମ",
    "2621": "ାବ୍ୟ",
    "2622": "କ୍ଷେତ୍ର",
    "2623": " ସଂଘ",
    "2624": "୬ରୁ",
    "2625": "-୧",
    "2626": "୧୦",
    "2627": "ତିହାସିକ",
    "2628": " କ୍ଷତି",
    "2629": " ଖୁ",
    "2630": " ଗବେଷଣା",
    "2631": "୧୯୮",
    "2632": " ସହାୟ",
    "2633": "ଗ୍ରସ୍ତ",
    "2634": " ସଫଳତା",
    "2635": " ଅବସ୍ଥାରେ",
    "2636": " ଫଳରେ",
    "2637": " ଜମି",
    "2638": " ଯାଇଛି",
    "2639": " ପର୍ଯ୍ୟଟନ",
    "2640": "କ୍ରମ",
    "2641": " ଖର୍ଚ୍ଚ",
    "2642": " ପ୍ରଚାର",
    "2643": " ଆହୁରି",
    "2644": " ଲୋକଙ୍କ",
    "2645": " ଉତ୍ତାପ",
    "2646": "ମ,",
    "2647": "ଡୋ",
    "2648": "ଥେଷ୍ଟ",
    "2649": "ନ୍ତର",
    "2650": "ଟିନ",
    "2651": " ସନ",
    "2652": " ବ୍ୟାୟାମ",
    "2653": "ଉଁଶ",
    "2654": "ାଳନା",
    "2655": "ପ୍ଟେ",
    "2656": " ପୂର୍ବତନ",
    "2657": " ବିପକ୍ଷରେ",
    "2658": "ଚଳଚ୍ଚିତ୍ର",
    "2659": " ଶୁଭ",
    "2660": "ାମା",
    "2661": "ଣ୍ଟରନେଟ",
    "2662": " ମୁଭି",
    "2663": " ଡାଟ",
    "2664": " ଡାଟାବେ",
    "2665": " ଡାଟାବେସରେ",
    "2666": " ଅଗି",
    "2667": "ର୍ବ",
    "2668": " ବାଇ",
    "2669": " ଦେହରେ",
    "2670": "ସାମ",
    "2671": " ପୌର",
    "2672": "୬%",
    "2673": "୪%",
    "2674": " ନିକଟ",
    "2675": "ସେନ",
    "2676": " ଷ୍ଟେ",
    "2677": " ରହିଥାଏ",
    "2678": "ିକାର",
    "2679": " ଶୋଇ",
    "2680": "‌କ",
    "2681": " ଜେନେଟିକ",
    "2682": "ଙ୍ଖ",
    "2683": "ପୀ",
    "2684": " ପ୍ରତିଷେଧ",
    "2685": " ଦେଶମାନଙ୍କରେ",
    "2686": " ହଜାର",
    "2687": ",୦୦୦",
    "2688": "ବିଧ",
    "2689": " ପ୍ରଜାତି",
    "2690": " ଅଷ୍ଟ୍ରେ",
    "2691": " ଅଷ୍ଟ୍ରେଲିଆ",
    "2692": " ଡାଇ",
    "2693": "ାଇଡ",
    "2694": "ଜୀବୀ",
    "2695": " ବେଦ",
    "2696": " ନିୟନ୍ତ୍ରଣ",
    "2697": " ୭୨",
    "2698": " ଉପସ୍ଥିତି",
    "2699": " ସାମନ୍ତା",
    "2700": "ଚୈତନ୍ୟ",
    "2701": " ପସନ୍ଦ",
    "2702": "ୁଥିଲେ",
    "2703": " ଲେଖିଥିଲେ",
    "2704": "ଲୋଚକ",
    "2705": " ସାଜି",
    "2706": " ଘୋଷ",
    "2707": " ଆମେରି",
    "2708": " ଏମ୍",
    "2709": " ବାପା",
    "2710": " ମଧୁ",
    "2711": "ଦାସ",
    "2712": "ତ୍ମକ",
    "2713": " ପତ୍ନୀ",
    "2714": "ସିଙ୍ଗ",
    "2715": "ଯାଆନ୍ତି",
    "2716": " ଖାଲି",
    "2717": " ବେଶୀ",
    "2718": "୧ତମ",
    "2719": "ଅକ୍ଷରା",
    "2720": " ହାସନ",
    "2721": "ଏବେ",
    "2722": " ଜନ୍ମିତ",
    "2723": " ଜଣାଶୁ",
    "2724": " ଜଣାଶୁଣା",
    "2725": "ଷକ",
    "2726": "ସେଠାରେ",
    "2727": " ଦାନ",
    "2728": "ଡିତ",
    "2729": " ଭବିଷ୍ୟ",
    "2730": " ଶ୍ରୀଜୀ",
    "2731": " ଶ୍ରୀଜୀଉ",
    "2732": "ଉଳ",
    "2733": " ଧାରାବାହ",
    "2734": " ଧାରାବାହିକ",
    "2735": " ଯାଏଁ",
    "2736": "\"ର",
    "2737": " ନାଟ୍ୟ",
    "2738": "ମଣ୍ଡ",
    "2739": " ଦିଏ",
    "2740": "ତ୍ତ୍ୱ",
    "2741": " ପକ୍ଷ",
    "2742": " ଯଶୋ",
    "2743": " ସୁଭଦ୍ରା",
    "2744": "ଜୀବନ",
    "2745": " ଚିନ୍ତା",
    "2746": " ସାହିତ୍ୟର",
    "2747": "ଅଗ",
    "2748": " ବଢ଼",
    "2749": "ରଣର",
    "2750": "ପୁରା",
    "2751": "ାଇବା",
    "2752": " ଏଞ୍ଜାଇମ",
    "2753": " ବାନ୍ତି",
    "2754": "୍ରପାନ",
    "2755": "ଉଣ୍ଡ",
    "2756": " ଓକାଳ",
    "2757": " ହୋଇଯାଏ",
    "2758": "କ୍ରନିକ",
    "2759": " ଚର୍ବି",
    "2760": " କନ୍ୟା",
    "2761": " ଠିକ",
    "2762": " ପରିସ୍ଥିତି",
    "2763": " ଅଗ୍ନିମିତ୍ର",
    "2764": " ଆଗ୍",
    "2765": " ଗ୍ରନ୍ଥ",
    "2766": "ଶରୀ",
    "2767": " ରୋଗୀର",
    "2768": " ଏରି",
    "2769": " ଅକ୍ଷମ",
    "2770": " ପ୍ରୟୋଗ",
    "2771": " ଉନ୍ନତି",
    "2772": " ପ୍ରାବଧାନ",
    "2773": " ଗିର",
    "2774": " ଗିରଫ",
    "2775": " ଆବେଦନ",
    "2776": " ରିପୋର୍ଟ",
    "2777": "ୁବନେ",
    "2778": "୍‌",
    "2779": "ୟାର୍",
    "2780": "ସାଧାରଣତଃ",
    "2781": " ସପ୍ତାହରୁ",
    "2782": " ଡାକ୍ତ",
    "2783": "ିରା",
    "2784": " ଆରା",
    "2785": "ାଳାମୁଖୀ",
    "2786": "ଅଙ୍ଗୁର",
    "2787": " ଆୟତନ",
    "2788": " ହେବାର",
    "2789": " ପତ୍ରିକା",
    "2790": " ବଳରାମ",
    "2791": "େନିଆ",
    "2792": " ପ୍ରତିନିଧିତ୍ଵ",
    "2793": " ଅଜିତ",
    "2794": " ପଞ୍ଜାବ",
    "2795": " ଇନ",
    "2796": "ମ୍ବେ",
    "2797": " ରୌପ",
    "2798": " ରୌପ୍ୟ",
    "2799": " ଅଟନ୍ତି।",
    "2800": " ଷ୍ଟା",
    "2801": " ରାଇଫ",
    "2802": " ଭାଙ୍ଗି",
    "2803": "ବାଜପେୟୀ",
    "2804": " ଅଟାରୀ",
    "2805": "ୀମ",
    "2806": " ପାଏ",
    "2807": " ସୁଗନ୍ଧି",
    "2808": " ସୋଡ଼ିଅମ",
    "2809": " ହାଇପରନା",
    "2810": "ଟ୍ରେମିଆ",
    "2811": "ମ୍ୱଦନ୍ତୀ",
    "2812": "ଲାଉ",
    "2813": " ପ୍ୟ",
    "2814": " ପ୍ୟାରି",
    "2815": " ଦିଅନ୍ତୁ",
    "2816": "ଅଦିତି",
    "2817": "ଅଧକପାଳି",
    "2818": " ସେକେଣ୍ଡ",
    "2819": " ଯୋଡା",
    "2820": " ପ୍ରଣ",
    "2821": "ବିଶେଷ",
    "2822": " ମିଶି",
    "2823": " ସଦର",
    "2824": " ମହକୁ",
    "2825": " ମହକୁମା",
    "2826": " ଚିହ୍ନଟ",
    "2827": "ିକା,",
    "2828": "ପ୍ତି",
    "2829": " ଅମ୍ଳ",
    "2830": "ାତୁ",
    "2831": " ତିନୋଟି",
    "2832": " ବ୍ରହ୍",
    "2833": "କର୍ମ",
    "2834": "ଧ୍ୟାନ",
    "2835": " ଉଚିତ",
    "2836": " ପ୍ରାଣୀ",
    "2837": "ର୍ଗ",
    "2838": " ମାସର",
    "2839": " ଇଚ୍ଛା",
    "2840": "ମ୍ବଦନ୍ତୀ",
    "2841": " ଦିନେ",
    "2842": "ସ୍ତରେ",
    "2843": " ପତି",
    "2844": "ାଇଲେ",
    "2845": " ସେମାନଙ୍କୁ",
    "2846": " କାମ୍ପୁ",
    "2847": " କାମ୍ପୁଚିଆ",
    "2848": " ଲେଖା",
    "2849": "ବଂଶ",
    "2850": " ସୂର୍ଯ୍ୟବର୍ମନଙ୍କ",
    "2851": " ପରିଣ",
    "2852": " ପାରମ୍ପ",
    "2853": " କଳାର",
    "2854": " ଢା",
    "2855": " ଗ୍ୟା",
    "2856": " ପ୍ରାଙ୍ଗଣ",
    "2857": " ପୌରାଣିକ",
    "2858": "କ୍ୟ",
    "2859": "ଦିଏ",
    "2860": " ନଗ",
    "2861": "ଫୁ",
    "2862": "ାସା",
    "2863": "ାବ୍",
    "2864": "୫୦",
    "2865": "ଥାଇ",
    "2866": " ରାଜାଙ୍କ",
    "2867": " ମୃତ୍ୟୁର",
    "2868": " ବାୟୋ",
    "2869": "ନାବ",
    "2870": " ସମ୍ଭବ",
    "2871": " କଳ୍ପ",
    "2872": " ଦର୍ଶନ",
    "2873": " କରିବ",
    "2874": " ଯେତେବେଳେ",
    "2875": " ଇତିହାସ",
    "2876": "ୀକାର",
    "2877": "ଲ୍ୟା",
    "2878": "କୈ",
    "2879": "ଉଥିବା",
    "2880": " ଦର୍ଶା",
    "2881": "ଦେଶର",
    "2882": "ପାରୁ",
    "2883": "ଡିର",
    "2884": " ବିଧି",
    "2885": "ହମ",
    "2886": " ଉଦ୍ଦେଶ୍ୟରେ",
    "2887": " ପରିବେଶ",
    "2888": "ରୂପ",
    "2889": "କ୍ଷକ",
    "2890": "ଷ୍ଟିକ",
    "2891": "ଢା",
    "2892": " ୮୦",
    "2893": " ପୋଲ",
    "2894": " ଗୋପୁର",
    "2895": " ଭିତର",
    "2896": " ପଥ",
    "2897": " ଅଞ୍ଚଳ",
    "2898": "କାରଣ",
    "2899": "ୋଜିତ",
    "2900": "ଖିତ",
    "2901": "ମେରୁ",
    "2902": " ତା’",
    "2903": " କୋଣ",
    "2904": " ୯୨",
    "2905": "ସାଗର",
    "2906": "ରାୟଣ",
    "2907": "ତାବି",
    "2908": " ଅଧିକାରୀ",
    "2909": " ୧୯୯୨",
    "2910": " ବିଭାଗ",
    "2911": " ସ୍ଥଳ",
    "2912": " ଜୋ",
    "2913": "ଅନେକ",
    "2914": " ୨୦୧୩ରେ",
    "2915": " କୀ",
    "2916": "ନୈ",
    "2917": "ନୈତିକ",
    "2918": " ପ୍ରଭାବିତ",
    "2919": "ବାୟୁ",
    "2920": " ସଭ୍ୟ",
    "2921": " ଏଥିରେ",
    "2922": " ହୃ",
    "2923": "ମାତ୍ରା",
    "2924": " ଯଥେଷ୍ଟ",
    "2925": " କମେ",
    "2926": "ରାଷ୍ଟ୍ର",
    "2927": " ଆମେରିକାରେ",
    "2928": " ବର୍ଷକୁ",
    "2929": " ଉର୍ଦ୍ଧ",
    "2930": "ଧର",
    "2931": "ମେନ",
    "2932": " ୱେଷ୍ଟ",
    "2933": " ଇଣ୍ଡି",
    "2934": " ଦଳରେ",
    "2935": " ଉତ୍ସବରେ",
    "2936": " ବଙ୍ଗ",
    "2937": "ନାଟ୍ୟ",
    "2938": " ମହାନ୍ତି,",
    "2939": "ଇଁ",
    "2940": " ଖାଇଲେ",
    "2941": "ପାଦନ",
    "2942": " ଲୋକମାନେ",
    "2943": " ସେମାନଙ୍କର",
    "2944": "ଆର",
    "2945": "ଲେଶ୍ଵର",
    "2946": "ୋଳ",
    "2947": " ପାଣିରେ",
    "2948": "ଅଉରଙ୍ଗାବାଦ",
    "2949": "୯%",
    "2950": ".୮",
    "2951": "୮%",
    "2952": "ନିମ୍ନ",
    "2953": "ଳାଭୂମି",
    "2954": " କ୍ଷୁଦ୍ର",
    "2955": " ଷ୍ଟେସନ",
    "2956": " ରେଳ",
    "2957": " ଅଟୋ",
    "2958": " ଚାପ",
    "2959": " ଯୌ",
    "2960": " ଶାଖା",
    "2961": " ଲମ୍ବ",
    "2962": " ବୀ",
    "2963": " ସିସ୍",
    "2964": " ଗୁଡିକୁ",
    "2965": "ାସ,",
    "2966": "ସିନୋ",
    "2967": "ିବାର",
    "2968": "ସିସ",
    "2969": "ପ୍ଟ",
    "2970": " ଦୁଃ",
    "2971": "ାଇଁ",
    "2972": " ୭୭",
    "2973": "ବାଦୀ",
    "2974": " ଏଇ",
    "2975": " ହେଇଥିଲେ",
    "2976": " ଗୌତମ",
    "2977": "ୀତା",
    "2978": "ମ୍‌ରେ",
    "2979": "କ୍କା",
    "2980": "ଡ଼ୁ",
    "2981": "ଚ୍ଛେ",
    "2982": "ଚ୍ଛେଦ",
    "2983": " ସ୍ନାତକ",
    "2984": " ଛାତ୍ର",
    "2985": "ିନିୟ",
    "2986": " ହତ୍ୟା",
    "2987": " ରାଜନୀ",
    "2988": "ଅକ୍ଟୋ",
    "2989": " ସ‌ହକାରୀ",
    "2990": " ଭର",
    "2991": " ମାଲିକ",
    "2992": "ଖ୍ୟାତ",
    "2993": "ାରାୟଣ",
    "2994": "ିକେ",
    "2995": "ିତାଭ",
    "2996": " ଟି",
    "2997": "କୂ",
    "2998": " ରାଷ୍ଟ୍ରୀୟ",
    "2999": "ଚରଣ",
    "3000": " ଗୋଳ",
    "3001": "୪ତମ",
    "3002": "୫ତମ)",
    "3003": "୩ତମ",
    "3004": "୪ତମ)",
    "3005": "ୋଗ୍ରା",
    "3006": "ଦିକ",
    "3007": " ପରିମାଣ",
    "3008": "ସ୍ଥାନର",
    "3009": " ଲେଖକ",
    "3010": " କହିଲେ",
    "3011": " ଖଣ୍ଡ",
    "3012": " ଋଷି",
    "3013": "ଶ୍ରୀମନ୍ଦିର",
    "3014": "ଲମ୍ବ",
    "3015": " ଚତୁର୍ଦ୍",
    "3016": " ଚତୁର୍ଦ୍ଦଶୀ",
    "3017": "ମୁଣ୍ଡ",
    "3018": " ମହାବିଦ୍ୟାଳୟରୁ",
    "3019": " ଆଇନ",
    "3020": " ଆକାଶ",
    "3021": " ପୁରୁଣା",
    "3022": "ରାଜା",
    "3023": " ପ୍ରି",
    "3024": " ଜରା",
    "3025": " ରକ୍ତସ୍ରାବ",
    "3026": " ପାର୍ଶ୍ୱ",
    "3027": " କରେ,",
    "3028": " ଡଲାର",
    "3029": "ଷ୍ଣବ",
    "3030": " ମହାପ୍ରଭୁ",
    "3031": " ୬୦",
    "3032": " ପ୍ରସାଦ",
    "3033": "ଭଦ୍ର",
    "3034": " ଅନ୍ଧ",
    "3035": " ବଢ଼ିଥାଏ",
    "3036": "ପଥ",
    "3037": " ଧରଣର",
    "3038": " ମୋଟା",
    "3039": " ଅଗଷ୍ଟସ",
    "3040": " ଖ୍ରୀଷ୍ଟ",
    "3041": "୍ରୁ",
    "3042": " ଛେ",
    "3043": " ୨୦୦୦",
    "3044": "ଭର୍",
    "3045": "ଅଗ୍ନାଶୟ",
    "3046": "ଗର୍ଭ",
    "3047": " ପାକ",
    "3048": " ଆକ୍ୟୁଟ",
    "3049": "ିକାଲ",
    "3050": " ଇମେଜିଙ୍ଗ",
    "3051": "ଡ଼ିତ",
    "3052": "ନୀତ",
    "3053": " ସକ୍ଷମ",
    "3054": " ଦୀନ",
    "3055": "ରଣା",
    "3056": " ବିଦ",
    "3057": " ପାଚନ",
    "3058": " ସଂତ୍ଵର",
    "3059": " ଅଥ",
    "3060": " ପ୍ରତିରୋଧ",
    "3061": "ନ୍ତ୍ରିକ",
    "3062": "ମେଣ୍ଟ",
    "3063": " ଅଗ୍ରୀ",
    "3064": " ଅଗ୍ରୀମ",
    "3065": "ବାରେ",
    "3066": " ପରିସର",
    "3067": " ଦିଅନ୍ତି",
    "3068": " ତରଫ",
    "3069": " ତରଫରୁ",
    "3070": " ଗୁଜରା",
    "3071": "ଅଙ୍କିତା",
    "3072": " ଜୁଲାଇ",
    "3073": "ମିର",
    "3074": " କାମୁ",
    "3075": " ସ୍ଟେ",
    "3076": " ବିସ୍ତାର",
    "3077": " ଶରୀ",
    "3078": " ଅଦ",
    "3079": " ନଦ",
    "3080": " ଅଙ୍ଗିରା",
    "3081": " ତପସ",
    "3082": " ପୁରାତନ",
    "3083": " ଜ୍ୱାଳାମୁଖୀ",
    "3084": "ରେ,",
    "3085": " ପ୍ରଦେଶର",
    "3086": " ପୁରୀ",
    "3087": "ଉପ",
    "3088": "ସଖା",
    "3089": "ଅନନ୍ତପୁର",
    "3090": "ହାଣେ",
    "3091": " ରଣଜୀ",
    "3092": " ମ୍ୟାଚରେ",
    "3093": " ନିଉଜି",
    "3094": " ନିଉଜିଲାଣ୍ଡ",
    "3095": " ଦିନିକ",
    "3096": " ଦିନିକିଆ",
    "3097": "ାଳୀ",
    "3098": " ଅନ୍ତର୍ଜାତିକ",
    "3099": " ଉପଯୋଗୀ",
    "3100": " ଭାରତକୁ",
    "3101": " ଯାଇଥିଲେ",
    "3102": " ସୀମା",
    "3103": "ଭାର",
    "3104": " ଘଟଣା",
    "3105": " ରୂପରେ",
    "3106": " ରାଇଫଲ୍",
    "3107": "ଅଟ",
    "3108": " ପତାକା",
    "3109": " ଜନତା",
    "3110": "ମ୍ମ୍ୟୁ",
    "3111": " ଅଠର",
    "3112": " ପବନ",
    "3113": "ଅଣସର",
    "3114": " ପଟି",
    "3115": " ହୁଏ।",
    "3116": " ଯନ୍ତ୍ରଣାରେ",
    "3117": "ସେଟ",
    "3118": "ବିମ୍ବ",
    "3119": "ସକ୍ରିୟ",
    "3120": "ଔଷଧ",
    "3121": "ଫ୍ୟୁମ",
    "3122": " ସୁଗନ୍ଧ",
    "3123": " ହାଇପରନାଟ୍ରେମିଆ",
    "3124": " ବୁଦ୍ଧି",
    "3125": " ଏଥେନ୍",
    "3126": "କ୍‌ନେ",
    "3127": " ଅରା",
    "3128": " ତ୍ରୟୋଦଶୀ",
    "3129": " ବ୍ୟଞ୍ଜନ",
    "3130": "ହାଣ୍ଡି",
    "3131": " ଅଛି।",
    "3132": "ଭିଦ",
    "3133": "ଓଡ଼ିଶାର",
    "3134": " ଅଁଳା",
    "3135": " (ଅ",
    "3136": "ନା,",
    "3137": " ଧାତୁ",
    "3138": " ନିବାର",
    "3139": "ଳାରେ",
    "3140": "ଲା,",
    "3141": " ଅମୃତ",
    "3142": " ଔଷଧୀୟ",
    "3143": " ୯୦",
    "3144": " ଦେଇଥିଲେ,",
    "3145": "ଳାର",
    "3146": " ପ୍ରତ୍ୟେକ",
    "3147": " ନିତ",
    "3148": " ଆନନ୍ଦ",
    "3149": " କିମ୍ବଦନ୍ତୀ",
    "3150": " ବନ",
    "3151": "ନିଜ",
    "3152": " ଅସୁବିଧା",
    "3153": " ତୁଳ",
    "3154": " ନାର",
    "3155": " ସ୍ଥିତ",
    "3156": " ଦ୍ଵା",
    "3157": " ଆଡ",
    "3158": " ପରିଣତ",
    "3159": "କୀୟ",
    "3160": "ମାନଙ୍କଦ୍ଵାରା",
    "3161": " ଶୈ",
    "3162": " ପରିବର୍ତ୍ତେ",
    "3163": " ଆସୁ",
    "3164": " ଦିଗକୁ",
    "3165": "କୋର",
    "3166": " ସମ୍ପର୍କରେ",
    "3167": "ାଇବାକୁ",
    "3168": "ଣୀର",
    "3169": "ଖୁ",
    "3170": "ନଗର",
    "3171": " ସଂସ୍କୃତ",
    "3172": " ଉଦ୍ଧ",
    "3173": "ରାହ",
    "3174": "ଏମ୍",
    "3175": " ଇନ୍ଦ୍ର",
    "3176": "ାନ୍",
    "3177": " ବିବେଚିତ",
    "3178": " ଶିଳାଲେଖ",
    "3179": " ତଥ",
    "3180": "ୁସାରେ",
    "3181": "ନ୍ଦୀ",
    "3182": " ପରିବର୍ତ୍ତିତ",
    "3183": " ସୁଦ୍ଧା",
    "3184": " ସମ୍ପୂର୍",
    "3185": "ନନ",
    "3186": " କହିଥିଲେ",
    "3187": " ଶିଳ୍ପୀ",
    "3188": " ସୁନ୍ଦର",
    "3189": " ସପ୍ତ",
    "3190": " ତୀର୍",
    "3191": " ତୀର୍ଥ",
    "3192": " ଅଧିବା",
    "3193": " ବସବାସ",
    "3194": " ମନେ",
    "3195": "ବିଂଶ",
    "3196": " ଖ୍ୟା",
    "3197": " କୃତି",
    "3198": " ଗୌର",
    "3199": " ଭ୍ରମଣ",
    "3200": "ାରିତ",
    "3201": "ବାବ",
    "3202": " ଦେବତାଙ୍କ",
    "3203": " ଲୋକଙ୍କୁ",
    "3204": " ଜର୍",
    "3205": "ସ୍ତୁ",
    "3206": "୍ୟ,",
    "3207": "ଉଭୟ",
    "3208": " କରୁଥିଲା",
    "3209": " ଉତ୍କ",
    "3210": " ଆବି",
    "3211": " ବାଲୁକା",
    "3212": " ଶୋଭା",
    "3213": "ସ୍ପ",
    "3214": " ୨୬",
    "3215": " (୬",
    "3216": " ଘେ",
    "3217": " ପ୍ରତିମୂର୍ତ୍ତି",
    "3218": "ଣାର",
    "3219": " ସଂଯ",
    "3220": " ଅନ୍ତଃ",
    "3221": " ଚାର",
    "3222": " କଳା,",
    "3223": " ବାମ",
    "3224": " ଚିତ୍ରିତ",
    "3225": "ଯାତ୍ରା",
    "3226": " କ୍ଷୀର",
    "3227": "ିଣା",
    "3228": " ପରାସ୍ତ",
    "3229": " ଶ୍ରୀକୃଷ୍ଣ",
    "3230": "ଗ୍ରାମ",
    "3231": " କୃଷ୍ଣଙ୍କ",
    "3232": " (୧୨",
    "3233": "କ୍ଷେ",
    "3234": " ପ୍ରାରମ୍ଭ",
    "3235": " କାମ୍ଵୋଡିଆର",
    "3236": " ଭୁ",
    "3237": " ନିର୍ଗତ",
    "3238": "ପର୍ଯ୍ୟ",
    "3239": " ଗଠିତ",
    "3240": " ରହିବା",
    "3241": " ପ୍ରସାର",
    "3242": " ଦିଆଯାଇ",
    "3243": " ରାଜନୈତିକ",
    "3244": " ଇଂରାଜୀ",
    "3245": "ସରୁ",
    "3246": " ଗରମ",
    "3247": " ଥଣ୍ଡା",
    "3248": " ଜଳରେ",
    "3249": " ଥିବାବେଳେ",
    "3250": "ବ୍ୟା",
    "3251": " ହ୍ରଦ",
    "3252": " ସେପ୍ଟେ",
    "3253": " ପ୍ରଶିକ୍ଷ",
    "3254": "ଟିଙ୍ଗ",
    "3255": "ଯାଉଥିଲା",
    "3256": " କଲିକ",
    "3257": " ଇଣ୍ଡିଜ",
    "3258": " ସଦସ୍ୟ",
    "3259": " ଦାସଙ୍କ",
    "3260": " କଟା",
    "3261": " ହେଲେ:",
    "3262": " ୨୦୧୫ରେ",
    "3263": "ଚନ୍ଦ୍ର",
    "3264": "କୁମାର",
    "3265": " ଶତ",
    "3266": "ଇଘ",
    "3267": "ଏଥି",
    "3268": " କମାର",
    "3269": " ଶାଳ",
    "3270": " ନାନା",
    "3271": " ସମର୍",
    "3272": " ଯାଇଥିବା",
    "3273": " ଠାକୁର",
    "3274": "ଗୃହ",
    "3275": " ନିଆଁ",
    "3276": " ଭାରତରେ",
    "3277": " ପୌରପାଳ",
    "3278": " ପୌରପାଳିକା",
    "3279": "୨%",
    "3280": " ମହାରାଷ୍ଟ୍ରର",
    "3281": " ୭୫",
    "3282": " ୧୦୦୦",
    "3283": " ବାର୍ଷିକ",
    "3284": " ତାପ",
    "3285": ".୯",
    "3286": " ବେଳାଭୂମି",
    "3287": "ାନି",
    "3288": " ବର୍ଷରୁ",
    "3289": " ଏସ.ଆଇ.ଡି.",
    "3290": "ଭାବିକ",
    "3291": " ବିଶ",
    "3292": " ପିଠି",
    "3293": "ଶାଳୀ",
    "3294": " ଉପାୟ",
    "3295": " ଆସିବା",
    "3296": " ମଞ୍ଜ",
    "3297": "ର୍ଘ",
    "3298": " ଆହ",
    "3299": " କ୍ରମେ",
    "3300": "ଏଡ",
    "3301": " ମାର",
    "3302": "ଅସ",
    "3303": "ଏବଂ",
    "3304": " ଜୀବାଣୁ",
    "3305": " କଣ୍ଠଦାନ",
    "3306": " ୪୨",
    "3307": " ରହନ୍ତି",
    "3308": "ଅକ୍କିନେନି",
    "3309": " ଚୈତନ୍ୟଙ୍କ",
    "3310": " ଲଭ୍",
    "3311": " ନାଗାର୍ଜୁନଙ୍କ",
    "3312": "ନ୍ନାଇ",
    "3313": " ଦଗୁ",
    "3314": " ଜଗତର",
    "3315": "ନାଇ",
    "3316": "ୋଜକ",
    "3317": "ଦ୍ରାବାଦ",
    "3318": " ଫେରି",
    "3319": " ପଦ୍ଧ",
    "3320": "‌ହୁ",
    "3321": " ଜାନ",
    "3322": " ଟୁ",
    "3323": " ଲେଖିଥିଲେ:",
    "3324": " ଦରକାର",
    "3325": " ସାଜିଥିଲେ",
    "3326": " ପଢ଼ି",
    "3327": "'ର",
    "3328": "ଂରେ",
    "3329": " ସମୀ",
    "3330": " ଶୀ",
    "3331": " ପାଇଥିଲା",
    "3332": "ପକ",
    "3333": " କମ୍ପାନୀର",
    "3334": " ହୋଇଯାଇ",
    "3335": "ଦେବୀ",
    "3336": " ଚଳଚ୍ଚିତ୍ରଟିର",
    "3337": "ୋନି",
    "3338": " ଇଣ୍ଡିଆ",
    "3339": " ବିନା",
    "3340": "ଦୁଇ",
    "3341": " ଗଭ",
    "3342": " ଗଭୀର",
    "3343": " ସବୁଠୁ",
    "3344": "େଜ",
    "3345": "ାର୍କ",
    "3346": " ସଞ୍ଚ",
    "3347": " ଗ୍ରେ",
    "3348": "୫ତମ",
    "3349": "୬ତମ)",
    "3350": "୬ତମ",
    "3351": "୭ତମ)",
    "3352": "୭ତମ",
    "3353": "୮ତମ)",
    "3354": "୮ତମ",
    "3355": "୨ତମ)",
    "3356": "୨ତମ",
    "3357": "୩ତମ)",
    "3358": " ୩୧",
    "3359": " ଟାଇପ",
    "3360": " ବିନ୍ଦୁ",
    "3361": "କାମ",
    "3362": " ଭଉଣୀ",
    "3363": " କହନ୍ତି",
    "3364": "ଲାଲ",
    "3365": "ବୈ",
    "3366": " ତୃତୀୟା",
    "3367": " ସିଦ୍ଧ",
    "3368": " ଶଙ୍ଖ",
    "3369": " ଏହିପରି",
    "3370": " ଜୀବନରେ",
    "3371": "ତାଙ୍କୁ",
    "3372": "ଜ,",
    "3373": " ଶ୍ରୀକ୍ଷେତ୍ର",
    "3374": "ସ୍ନାନ",
    "3375": " ଜାରି",
    "3376": " ମୁଁ",
    "3377": " ଗାୟ",
    "3378": " ଭଜନ",
    "3379": "ପଡ଼ା",
    "3380": "ୀତି",
    "3381": "ଯାନ",
    "3382": " ଦେଇଛନ୍ତି",
    "3383": " ପୁସ୍ତ",
    "3384": "ପିଲା",
    "3385": " ଥି",
    "3386": " (ଇଂରାଜୀ:",
    "3387": " ମୌଳିକ",
    "3388": " ପରମା",
    "3389": " ପରମାଣୁ",
    "3390": "ଜୋ",
    "3391": " ସ୍ଵା",
    "3392": " ହେଉଥିଲେ",
    "3393": " ଯାହାଦ୍ୱାରା",
    "3394": "ଂଘା",
    "3395": "ଂଘାତିକ",
    "3396": " ସ୍ୱାସ୍ଥ",
    "3397": " ସ୍ୱାସ୍ଥ୍ୟ",
    "3398": "ଟମ",
    "3399": " ବୈଷ୍ଣବ",
    "3400": " ହୋଇଗଲେ",
    "3401": " ମିଶାଇ",
    "3402": " ଆଶ୍ର",
    "3403": "ୟିକ",
    "3404": "ଚୟ",
    "3405": " ବିର",
    "3406": " ଗଛର",
    "3407": " ତ‌",
    "3408": "ଗୁଡ଼ିକୁ",
    "3409": " ତ୍ରି",
    "3410": " ରାଜ୍ୟର",
    "3411": " ଆତ୍ମ",
    "3412": "ଡର",
    "3413": " ଦାୟିତ୍ୱ",
    "3414": " ମନ୍ତ୍ରୀ",
    "3415": " ଯନ୍ତ୍ରଣା,",
    "3416": "କୋଷ",
    "3417": " ଡାଏବେ",
    "3418": " ଡାଏବେଟିସ",
    "3419": " ରୋଗକୁ",
    "3420": "ରାପି",
    "3421": " ନିର୍ଭର",
    "3422": "ଶିତ",
    "3423": " ପାଚକ",
    "3424": " ସିଧା",
    "3425": "ଲମ୍ବନ",
    "3426": " ଧୂମ",
    "3427": "ବେଦ",
    "3428": "ଞ୍ଚା",
    "3429": " ଚୋ",
    "3430": "ତ୍ରୁ",
    "3431": " ସଂଳା",
    "3432": " ଟଙ୍କା",
    "3433": " ରାସ୍ତା",
    "3434": "ଅଗ୍ନ୍ୟାଶୟ",
    "3435": " ସଂତ୍ଵରକ",
    "3436": "ଦ୍ବାରା",
    "3437": "ୁର୍ଣ୍ଣ",
    "3438": " ଲାଗିବା",
    "3439": " ଯାଇଥାଏ",
    "3440": " ସର୍ବଦା",
    "3441": "ଟେଡ",
    "3442": " ବିଚାର",
    "3443": " ଜଡିତ",
    "3444": " ସଂକ୍ର",
    "3445": " ଆକ୍ର",
    "3446": " ଆମେରିକା",
    "3447": " ଆଫ୍ର",
    "3448": " ବହୁତ",
    "3449": "ୟୁତ",
    "3450": " କାଶ",
    "3451": " ରଙ୍ଗର",
    "3452": " ସମାନ",
    "3453": "ଲିନ",
    "3454": " ଚିହ୍",
    "3455": " ଦୁର୍ବଳ",
    "3456": " ଡାକ୍ତର",
    "3457": " ମହର୍ଷି",
    "3458": " ତପସ୍ୟା",
    "3459": " ବିସ୍",
    "3460": " ବିସ୍ଫ",
    "3461": "ାର୍ଥୀ",
    "3462": " କର୍ଣ୍ଣା",
    "3463": " କର୍ଣ୍ଣାଟକ",
    "3464": "ଚିନ୍ତା",
    "3465": " କୁମାରୀ",
    "3466": " ହେବାପରେ",
    "3467": "ଅଠର",
    "3468": " ଦିନରୁ",
    "3469": " ତାରିଖରେ",
    "3470": " ଥିବାରୁ",
    "3471": " ପଞ୍ଚସଖା",
    "3472": " ମିଳୁ",
    "3473": "ସେତେବେଳେ",
    "3474": "ଚୁ",
    "3475": " ଆପେ",
    "3476": " ଜୁନ",
    "3477": " ସମଗ୍ର",
    "3478": " ପୃଥିବୀର",
    "3479": " ଋପେ",
    "3480": " ଅପ୍ରେ",
    "3481": " ପଦକ",
    "3482": " ପ୍ରତିଯୋଗିତା",
    "3483": " ବମ୍ବେ",
    "3484": "ଲିପ",
    "3485": " ୱି",
    "3486": " ନେତା",
    "3487": "ଗାଓ",
    "3488": "ଗାଓଁ",
    "3489": " ୟୁନି",
    "3490": "ଚର",
    "3491": "ଅଜୟଗଡ",
    "3492": "ନ୍ଦେ",
    "3493": " ଶର୍ମା",
    "3494": " ବନ୍ଧୁକ",
    "3495": " ଜିତିଥିଲେ",
    "3496": " ଅଟଳ",
    "3497": " ଯୋଜନାରେ",
    "3498": "ଭୋ",
    "3499": " ୨୦୧୪",
    "3500": "ପରାୟଣ",
    "3501": " ଘାଟ",
    "3502": " ପଣା",
    "3503": " ପାରା",
    "3504": " ପାରାସେଟ",
    "3505": " ପାରାସେଟାମ",
    "3506": "ୟବିକ",
    "3507": " କୈ।",
    "3508": " ପରଫ୍ୟୁମ",
    "3509": "ତାବିରା",
    "3510": " ଗୁଳ୍",
    "3511": " ହର୍ମି",
    "3512": " ଆଗ୍ଲାଉ",
    "3513": " ଆଗ୍ଲାଉଲସ୍",
    "3514": " ଅଥୀନାଙ୍କ",
    "3515": "ସ୍କର୍ଯ୍ୟ",
    "3516": " ମିଗ୍ରେନ",
    "3517": " ଅକ୍ଷର",
    "3518": " ଗାଆଁଟି",
    "3519": "ଗୋଟିଏ",
    "3520": " ଉଦ୍ଭିଦ",
    "3521": " ସର୍ବତ୍ର",
    "3522": " ଲୋକେ",
    "3523": "ଳା,",
    "3524": " ମଧୁର",
    "3525": "କ୍ଷୁ",
    "3526": "ତ,",
    "3527": " ପିତ୍ତ",
    "3528": " ଶ୍",
    "3529": "କ୍ଷୟ",
    "3530": "ର୍ଣ୍ଣ,",
    "3531": " ଅଟେ।",
    "3532": "ଶାସ୍ତ୍ର",
    "3533": " ବ୍ରହ୍ମା",
    "3534": " ଆଦ",
    "3535": " ପ୍ରସ",
    "3536": " ଧ୍ୟାନ",
    "3537": " ବିଧ",
    "3538": " ପକ୍ଷରେ",
    "3539": " ନବମୀ",
    "3540": " ସଂସ୍କୃତି",
    "3541": "ଶ୍ଵାସ",
    "3542": " ଦ୍ରବ୍ୟ",
    "3543": " ଭୂମି",
    "3544": " ପାର୍ବତୀ",
    "3545": " ପ୍ରିୟ",
    "3546": "ଅର୍",
    "3547": " କିପରି",
    "3548": " ଶୁଣି",
    "3549": " ଚାରିପଟେ",
    "3550": " ଧାର୍",
    "3551": " ଧାର୍ମିକ",
    "3552": "ହିନ୍ଦୁ",
    "3553": "ରାର",
    "3554": " ଅଞ୍ଚଳର",
    "3555": " ପାଲ",
    "3556": " କାମ୍ପୁଚିଆର",
    "3557": " ପ୍ରତୀ",
    "3558": " ପ୍ରତୀକ",
    "3559": "ଭାବେ",
    "3560": "କାରେ",
    "3561": "ଶାଳାର",
    "3562": " ଆୟତା",
    "3563": " ଆୟତାକାର",
    "3564": "ଦ୍ଵାର",
    "3565": "ହାଁ",
    "3566": " ମନ୍ଦିରଠାରୁ",
    "3567": "ସୁର",
    "3568": ".୪",
    "3569": " ଆଖ",
    "3570": "ସମସ୍ତ",
    "3571": " ସେଇ",
    "3572": "ଖ୍ରୀଷ୍ଟ",
    "3573": "୧୩",
    "3574": " ଅର୍ଥା",
    "3575": " କରାଯାଉଥିଲା",
    "3576": " ସମ୍ପର୍କିତ",
    "3577": " ଅନୁପସ୍ଥିତି",
    "3578": " ହୋଇଥିବାର",
    "3579": "ଦ୍ଵିତୀୟ",
    "3580": " ସମ୍ପୂର୍ଣ୍ଣ",
    "3581": " ହୋଇନାହିଁ",
    "3582": "ାବୁ",
    "3583": " ମାଡି",
    "3584": "ବାସୀ",
    "3585": " କଳାକୃତି",
    "3586": "ଜ୍ଜା",
    "3587": "୧୭",
    "3588": " ପୂର୍ବେ",
    "3589": " ଅନୁଶୀଳ",
    "3590": " ଜିତ",
    "3591": " ଉଦ୍ୟ",
    "3592": " ମୁହ",
    "3593": "ବରଣ",
    "3594": " ୱାଟ୍‍କୁ",
    "3595": " ସାମ୍",
    "3596": " ରୋମା",
    "3597": " ଆଶା",
    "3598": "ପରବର୍ତ୍ତୀ",
    "3599": " ସଫା",
    "3600": " ଅଂକୋର୍‍ର",
    "3601": " ନିମ୍",
    "3602": " ଲୁଗା",
    "3603": "ଟାର",
    "3604": " ଶତାବ୍ଦୀରେ",
    "3605": " ସଂରକ୍ଷଣ",
    "3606": " ମାଟି",
    "3607": "ସ୍ଥାୟୀ",
    "3608": "ରିକୀୟ",
    "3609": "ଏତ",
    "3610": " ସୈ",
    "3611": " ଗୁଳି",
    "3612": " ହୋଇଯାଇଛି",
    "3613": "କୈନ୍ଦ୍ର",
    "3614": "କୈନ୍ଦ୍ରିକ",
    "3615": " ପର୍ବତର",
    "3616": "ସ୍ତର",
    "3617": " ଗବେଷକ",
    "3618": " ପରିଚାଳ",
    "3619": "ତ୍ନତ",
    "3620": " ହୋଇଥିବାରୁ",
    "3621": " ପୋଷଣ",
    "3622": "ନାର",
    "3623": " କରିଥିବାରୁ",
    "3624": " ଆସ୍ଥାନ",
    "3625": "ଷ୍କାର",
    "3626": " ହୋଇସାରି",
    "3627": "ମାଙ୍କ",
    "3628": " ବାନ୍ଧି",
    "3629": "କୃତିକ",
    "3630": " ଉପାଦାନ",
    "3631": " ଛାତ",
    "3632": "ଗୁଣ",
    "3633": "ବାହିତ",
    "3634": " ଶିଖ",
    "3635": " ×",
    "3636": "ପ୍ରଥମେ",
    "3637": " ଚିତ୍ରଶାଳାର",
    "3638": " ସଂଯୁକ୍ତ",
    "3639": "ପୁରର",
    "3640": " କରିପାରିବେ",
    "3641": " ନୃତ",
    "3642": "ୃଶ",
    "3643": " ଓହ୍",
    "3644": " ଓହ୍ଲାଇ",
    "3645": " ପାହାଚ",
    "3646": " ପାଠା",
    "3647": " ବିରା",
    "3648": " ସ୍ଥାନେ",
    "3649": " ଭିତ୍",
    "3650": " ଯେ,",
    "3651": "ଣ୍ଡାର",
    "3652": "୧୪",
    "3653": " ପ୍ରାୟତଃ",
    "3654": " ଲିଖିତ",
    "3655": "ଲୁଆ",
    "3656": " ଧନ",
    "3657": "୩୪",
    "3658": " ପ୍ରଦର୍ଶ",
    "3659": "ଡାଇ",
    "3660": " ଅଜ",
    "3661": " ସେଣ୍ଟିମିଟର",
    "3662": " ଇଞ୍ଚ",
    "3663": "୩୭",
    "3664": " ଐତିହାସିକ",
    "3665": " ବିଭାଗର",
    "3666": " ଯତ୍ନ",
    "3667": "ଏଣ୍ଟ୍",
    "3668": "େସନ୍",
    "3669": "‍ରେ",
    "3670": " ସହାୟତା",
    "3671": " ରାସାୟ",
    "3672": " ରାସାୟନିକ",
    "3673": " ଅଭିଯୋଗ",
    "3674": " ସମାଲୋଚନା",
    "3675": " ୨୦୦୪",
    "3676": " କାର୍ଯ୍ୟର",
    "3677": " ବିଭକ୍ତ",
    "3678": " ରକ୍ଷଣାବେ",
    "3679": " ରକ୍ଷଣାବେକ୍ଷଣ",
    "3680": " ଅପସ",
    "3681": " ଅପସରା",
    "3682": " ପ୍ରଚଳ",
    "3683": "କ୍ଷାରେ",
    "3684": " ପ୍ରକଳ୍ପ",
    "3685": " କରୁଛି",
    "3686": " ଯାହାକୁ",
    "3687": "ପୁନ",
    "3688": " ବେଳେ,",
    "3689": " ଯୋଗାଇ",
    "3690": " ଉଦ୍ଦିଷ୍ଟ",
    "3691": "ତଳ",
    "3692": " ବଦଳି",
    "3693": " ହେତୁ",
    "3694": " ନିଷ୍ପ",
    "3695": " ନିଷ୍ପତ୍ତି",
    "3696": "ଅଂଶ",
    "3697": " ଲାଲ",
    "3698": " ଜ୍ୱର",
    "3699": " ରହିବାକୁ",
    "3700": " କମେଇବା",
    "3701": " ଶିରାଭ୍ୟ",
    "3702": "ଯୁକ୍ତରାଷ୍ଟ୍ର",
    "3703": " ୨୦୧୫",
    "3704": "କ୍ଟର",
    "3705": " ବାଉଁଶ",
    "3706": " ରହିଅଛି",
    "3707": " ନୌ",
    "3708": " ଚାଳନା",
    "3709": " ମାଛ",
    "3710": " ୧୯୫",
    "3711": " ରକ୍ଷଣଶୀଳ",
    "3712": " ଶୁଣା",
    "3713": " ବୋଲର",
    "3714": "ସେଥିପାଇଁ",
    "3715": " ଖେଳରେ",
    "3716": " ୬୭",
    "3717": " ମିନି",
    "3718": " ଧରା",
    "3719": "’ରେ",
    "3720": "ଲ୍ଲିକ",
    "3721": " ଚିତ୍ରନାଟ୍ୟ",
    "3722": " ଦୁଇଜଣ",
    "3723": " କଳାକାରମାନେ",
    "3724": "ଶିଳ୍ପୀ",
    "3725": "ଇଣ୍ଟରନେଟ",
    "3726": "ଇଘରା",
    "3727": " ସଂଯୋଗ",
    "3728": " କରିଥାଆନ୍ତି",
    "3729": " ଉତ୍ପାଦନ",
    "3730": " ଗୃହକୁ",
    "3731": " ବାହୁ",
    "3732": " କଲାବେଳେ",
    "3733": " ଲଗ",
    "3734": "ମହାରା",
    "3735": " ଔର",
    "3736": " ୩୫",
    "3737": " ତାପମାତ୍ରା",
    "3738": " ଠାରେ",
    "3739": " ମାଲ",
    "3740": "ପାରନ୍ତି",
    "3741": " ଗାର୍",
    "3742": " ଋତୁ",
    "3743": " ହେଇଥାଏ",
    "3744": "ଣ୍ଡ୍ରୋ",
    "3745": " ଜଣାଯାଇ",
    "3746": " ଶିକାର",
    "3747": " ସମ୍ବନ୍ଧୀୟ",
    "3748": " କଡ଼",
    "3749": "ମୋଟ",
    "3750": " ଶ୍ୱ",
    "3751": " ଟା",
    "3752": "ଅବ",
    "3753": "ପୃଥିବ",
    "3754": "ଆମେରିକାରେ",
    "3755": "କାର,",
    "3756": "ପୁଷ୍ପ",
    "3757": "ପୂ",
    "3758": " ଗୁଡିକରେ",
    "3759": " ପ୍ରତ",
    "3760": " କନ୍ଦ",
    "3761": "ବାଇ",
    "3762": " ଆରୋଗ",
    "3763": " ଆରୋଗ୍ୟ",
    "3764": " ଚେର",
    "3765": " ବେଦନା",
    "3766": "ଲିସ",
    "3767": " ପ୍ରବାହ",
    "3768": "ରୁଣ",
    "3769": " ରାୟ",
    "3770": "ଅକୋ",
    "3771": " କିମି",
    "3772": " (୨",
    "3773": " ତଥ୍ୟ",
    "3774": "ସେଥିରେ",
    "3775": "(ଜନ୍ମ",
    "3776": " ମୁଖ୍ୟତଃ",
    "3777": " ୨୦୦୯ରେ",
    "3778": " ‌ମନ",
    "3779": " ଜେଜେ",
    "3780": " ୨୦୧୪ରେ",
    "3781": " ଚେନ୍ନାଇ",
    "3782": " ବିଚ୍ଛେଦ",
    "3783": " ଅଖିଳ",
    "3784": " ସ୍କୁଲରେ",
    "3785": " ପଢ଼",
    "3786": "ବୋ",
    "3787": "ଉଥିଲେ",
    "3788": "ଳୟ",
    "3789": " ହାଇଦ୍ରାବାଦ",
    "3790": " ବାଣିଜ",
    "3791": "ମାସ",
    "3792": "ସ୍‌ରେ",
    "3793": " ପଦ୍ଧତି",
    "3794": " ଜାନୁଆ",
    "3795": " ଜାନୁଆରୀ",
    "3796": " ସାମା",
    "3797": " ସାମାଜିକ",
    "3798": " ଦକ୍ଷୀ",
    "3799": " ଦକ୍ଷୀଣ",
    "3800": " ସ‌ହିତ",
    "3801": " ରୂପ",
    "3802": " ସୁଧ",
    "3803": " ଚଳଚ୍ଚିତ୍ରର",
    "3804": "ଭାଇ",
    "3805": " କରିଥିଲେ,",
    "3806": " ଜୀବନର",
    "3807": " ଆଗକୁ",
    "3808": " ମେକ",
    "3809": " ଅପରା",
    "3810": " ଉପସ୍ଥା",
    "3811": " ନନ୍ଦ",
    "3812": " ଥରେ",
    "3813": " ମନୋର",
    "3814": " ଆନି",
    "3815": " ଭେଙ୍କ",
    "3816": " ରତ୍ନ",
    "3817": "ଅର",
    "3818": " କଲେଜରେ",
    "3819": "ଲେଜ",
    "3820": "ଷ୍ଟର",
    "3821": "ାର୍ଜୁ",
    "3822": "ସୂ",
    "3823": " ପରେ,",
    "3824": "ଷ୍ଣା",
    "3825": " ରାଜନୀତି",
    "3826": " ପ୍ରଭ",
    "3827": " ପ୍ରଭୃତି",
    "3828": " କରିବେ",
    "3829": " ସମ୍ମାନିତ",
    "3830": " ସାରା",
    "3831": " ଆତ",
    "3832": " ଜାଗ",
    "3833": "ଯାଉଥିବା",
    "3834": " ସହଜରେ",
    "3835": " ନୀଳ",
    "3836": "ଧାରୀ",
    "3837": " ଭୟ",
    "3838": " ମଣିଷ",
    "3839": "କ୍ଟୋ",
    "3840": "୯ତମ)",
    "3841": "୯ତମ",
    "3842": "୦ତମ)",
    "3843": "୦ତମ",
    "3844": "୧ତମ)",
    "3845": " ୩୦୦",
    "3846": "ρα",
    "3847": " ଅକ୍ଷରା",
    "3848": " ବାଙ୍ଗା",
    "3849": " ବାଙ୍ଗାଲୋ",
    "3850": " ଉକ୍ତ",
    "3851": " ଅନୁବାଦ",
    "3852": " ଶୁଭାରମ୍ଭ",
    "3853": " ଜଳଦାନ",
    "3854": " ଚମ",
    "3855": " ନଥିଲା",
    "3856": " ତୃଷ",
    "3857": " ତୃଷାର୍",
    "3858": " ତୃଷାର୍ତ୍ତ",
    "3859": " ଜଳଭ",
    "3860": "ିକ୍ଷା",
    "3861": " ନିଷ୍ଠ",
    "3862": "ମଦ",
    "3863": "ତୃତୀୟ",
    "3864": "ଭୋଗ",
    "3865": "ନେୟ",
    "3866": "ଶ୍ରୀମନ୍ଦିରରେ",
    "3867": " ସମ୍ପା",
    "3868": " ବିଶ୍ଵକ",
    "3869": "ହିତା",
    "3870": " ପ୍ରଶାସ",
    "3871": "ଷ୍କର",
    "3872": " ଚୁ",
    "3873": "ପିକ",
    "3874": "ଲ୍ଲୀ",
    "3875": " କେନ୍ଦ",
    "3876": " କେନ୍ଦ୍ରା",
    "3877": " କେନ୍ଦ୍ରାପଡ଼ା",
    "3878": "ଙ୍କଠାରୁ",
    "3879": " ପାସ",
    "3880": "କିରି",
    "3881": " ସାତ",
    "3882": "୭ରେ",
    "3883": " ଯୁବ",
    "3884": "ମଳ",
    "3885": " ମୋହନ",
    "3886": " ସେନା",
    "3887": " କଲି",
    "3888": "ଏଟ",
    "3889": "ଧୀନ",
    "3890": "େକସନ",
    "3891": " ଜରାୟୁ",
    "3892": "୨ରେ",
    "3893": " ମାର୍",
    "3894": " ଦ୍ୱା",
    "3895": " ଯଶୋଦା",
    "3896": "ମିତି",
    "3897": " ଲୀ",
    "3898": " ଆଶ୍ରମରେ",
    "3899": " ଶହ",
    "3900": " ୫୦ରୁ",
    "3901": "ଲି,",
    "3902": " ପ୍ରସ୍ତୁତି",
    "3903": "ଅଖିଳ",
    "3904": "ର୍ଦ୍ଧା",
    "3905": "ସ୍କୁ",
    "3906": "ଶେ",
    "3907": " କଲେଜରୁ",
    "3908": " ସାହିତ୍ୟିକ",
    "3909": " ଏକାଡେମୀ",
    "3910": "ଷାଢ଼",
    "3911": " ଚିର",
    "3912": " ତ‌ଥା",
    "3913": "ଭାବରେ",
    "3914": " ଶାସକ",
    "3915": "ଧିକାରୀ",
    "3916": " ସବୁଜ",
    "3917": "ଡ଼କୁ",
    "3918": " ଲାଇ",
    "3919": "ସିସ୍",
    "3920": " ଏସି",
    "3921": " ନିରା",
    "3922": " ହଜମ",
    "3923": " ନିଉରୋ",
    "3924": " ଥାଏ,",
    "3925": "ୁମ୍ରପାନ",
    "3926": " ଥେ",
    "3927": " ସାହାଯ୍ୟରେ",
    "3928": "ଟିଭ",
    "3929": " ବଞ୍ଚନ୍ତି",
    "3930": " ପାଞ୍ଚ",
    "3931": "ରକ୍ତ",
    "3932": " ସିଟି",
    "3933": " ସ୍କାନ",
    "3934": " ଆଣ୍ଟି",
    "3935": "ଳିକା",
    "3936": "ଗ୍ନି",
    "3937": " ମିଥ",
    "3938": " ମାଧ",
    "3939": " ଆଲୋକ",
    "3940": "ଦୀନ",
    "3941": "ୌହ",
    "3942": "ନାଥଙ୍କ",
    "3943": " ଜାଣି",
    "3944": " ପାରନ୍ତି",
    "3945": " ପିତାଙ୍କ",
    "3946": "କାନ୍ତ",
    "3947": " ସଂଳାପ",
    "3948": "ତ୍ତମ",
    "3949": "ହର",
    "3950": " ଶ୍ରୁ",
    "3951": " ଶ୍ରୁଙ୍ଗ",
    "3952": " ଜେନ",
    "3953": " ମହାରାଜା",
    "3954": " ଯଜ୍ଞ",
    "3955": " ସିଂ",
    "3956": " ନାଶ",
    "3957": "ହେବା",
    "3958": " ରସ",
    "3959": " ଦୁର୍ଗ",
    "3960": "ଖାନ",
    "3961": " ଧୋଇ",
    "3962": "ସଦ",
    "3963": " ବ୍ୟଥା",
    "3964": " ଅଥବା",
    "3965": " ଅକ୍ଷମତାର",
    "3966": "ୟାତ୍ମକ",
    "3967": " ମଳରେ",
    "3968": "ବୀକ୍ଷଣ",
    "3969": "ଟାମିନ",
    "3970": " ରୋକି",
    "3971": " ଅଙ୍ଗୁର",
    "3972": "ଦାରୀ",
    "3973": "ନୀୟ",
    "3974": "ଭାରତର",
    "3975": " ଯୋଗ୍ୟ",
    "3976": "ଲେ,",
    "3977": "ସେମାନେ",
    "3978": "ଲ୍ସ",
    "3979": " ବିଭାଗରେ",
    "3980": " ପେଶା",
    "3981": " ରେକ",
    "3982": " ରେକର୍ଡ",
    "3983": "ନୋଲୋ",
    "3984": " ଭୁବନେ",
    "3985": " ଟ୍ରେ",
    "3986": "ଅଙ୍କୁଶକୃମି",
    "3987": " ଆକ୍ରାନ୍ତ",
    "3988": " ଥକ୍କା",
    "3989": " ଅଙ୍କୁଶକୃମି",
    "3990": "ଙ୍କିଲୋ",
    "3991": "ସ୍ଟୋ",
    "3992": "୍ୟବ",
    "3993": "୍ୟାନ",
    "3994": " ବ୍ରି",
    "3995": "ତ୍ୟାଗ",
    "3996": " ନିୟୁତ",
    "3997": "ଟିନ୍",
    "3998": " ମଝ",
    "3999": " ମଝି",
    "4000": " ନାହିଁ,",
    "4001": "କ୍ୟୁ",
    "4002": " ପତ",
    "4003": "ପାଖ",
    "4004": " ଅନ୍ଧତ୍ୱ",
    "4005": " ଭୋ",
    "4006": " ନାମିତ",
    "4007": " ନଦୀର",
    "4008": " ତିନିଠାକୁର",
    "4009": " ପାଉଛନ୍ତି",
    "4010": " ବିଗ୍ରହ",
    "4011": "ଜ୍ୱ",
    "4012": " କ୍ଷେତ୍ରର",
    "4013": "ମ୍ବରରେ",
    "4014": " ବିସ୍ଫୋଟ",
    "4015": " ଯାଇଥିଲା",
    "4016": "ବହୁ",
    "4017": " ପେନ୍",
    "4018": " /",
    "4019": "ଟିଶ",
    "4020": " ଅଭୟ",
    "4021": " ସ୍ଥାପିତ",
    "4022": " ୫୧",
    "4023": " ପହଣ୍ଡ",
    "4024": " ଯାଆନ୍ତି",
    "4025": " ଗଜ",
    "4026": "ୱାନ",
    "4027": " ସନ୍ତାନ",
    "4028": "ସାହିତ୍ୟ",
    "4029": "ଧର୍ମ",
    "4030": " ପାଇଁ,",
    "4031": "କର୍",
    "4032": " ଏପ୍ର",
    "4033": " ଏପ୍ରିଲ",
    "4034": " ପିତ",
    "4035": " ମାଳ",
    "4036": " ଶୂ",
    "4037": "ାବତୀ",
    "4038": "ନ୍ତେ",
    "4039": " ଶିଷ୍ୟ",
    "4040": " ଶୂନ୍ୟ",
    "4041": "ଅଛ",
    "4042": " ଇଉ",
    "4043": " ଯୁଗରେ",
    "4044": "ଲିୟ",
    "4045": " ଅବସାଦ",
    "4046": "୨୦୧୭",
    "4047": " ଡିଜି",
    "4048": " ସମ୍ପତ୍ତି",
    "4049": "ଫଳରେ",
    "4050": "ପକ୍ଷରେ",
    "4051": "ୋପ",
    "4052": " ମୁମ୍ବାଇର",
    "4053": " ୧୯୯୯",
    "4054": "ଢୀ",
    "4055": "ପୁରୁଣା",
    "4056": " ଅପ୍ରେଲ",
    "4057": " ଅର୍ଜୁନ",
    "4058": " ଅଲିମ୍ପିକ୍‌",
    "4059": " ନିଯୁକ୍ତ",
    "4060": " ପଦ୍ମଶ୍ରୀ",
    "4061": " ଖେଳୁଥିଲେ",
    "4062": " ୧୯୭୪",
    "4063": " ଜିତିଥିଲା",
    "4064": "ୱେ",
    "4065": " ନେତୃତ୍ଵ",
    "4066": "ଯୋଗ୍ୟ",
    "4067": " ମନୋନୀତ",
    "4068": "ଏସ୍",
    "4069": " ତୈଳ",
    "4070": " ଷ୍ଟାଣ୍ଡ",
    "4071": " ଇଂଜ",
    "4072": " ବେକ",
    "4073": " ଅଜୟ",
    "4074": " ଜିନ୍",
    "4075": " ଭଗ୍ନ",
    "4076": "ଅଞ୍ଜନା",
    "4077": "ତ୍ରେତ",
    "4078": " ତତ୍କାଳୀନ",
    "4079": "ଅଞ୍ଜଳି",
    "4080": "ୋଳି",
    "4081": "ାଙ୍କନ",
    "4082": "୯୯",
    "4083": "୪୦୦",
    "4084": " ଫେବୃ",
    "4085": " ଫେବୃଆ",
    "4086": " ଫେବୃଆରୀ",
    "4087": " ପାଆନ୍ତି",
    "4088": " ବିରୋଧ",
    "4089": "୧୯୯୯",
    "4090": " ବାଜପେୟୀଙ୍କ",
    "4091": " ପାର୍ଟି",
    "4092": "ୱିତ",
    "4093": " ବିମାନ",
    "4094": " ପାକିସ୍ତାନ",
    "4095": " ସୀମାନ୍ତ",
    "4096": "ପରାୟଣତା",
    "4097": " ଭଲକରି",
    "4098": " କ୍ଵ",
    "4099": "ୋଇମ୍ମ୍ୟୁ",
    "4100": "ମେଟ",
    "4101": "ନଳା",
    "4102": " ନଳା",
    "4103": " ଗଙ୍ଗ",
    "4104": "ଡ଼ାଣା",
    "4105": " ରାଗ",
    "4106": " ଅଦିତିଙ୍କ",
    "4107": " ଭୃ",
    "4108": " ଦଇ",
    "4109": " ଦଇତା",
    "4110": " ପଟିଦିଅଁ",
    "4111": " ବାସୁଦେବ",
    "4112": "ନ୍ତ୍ରଣା",
    "4113": " ଅନିର୍",
    "4114": " ମାନି",
    "4115": " ଲାଗେ,",
    "4116": " ପ୍ରତିବିମ୍ବ",
    "4117": " ସ୍ନାୟବିକ",
    "4118": " ଶତକଡା",
    "4119": " ସଠିକ",
    "4120": " ବରଗଡ଼",
    "4121": " ଗୁଳ୍ମ",
    "4122": " କିମ୍ୱଦନ୍ତୀ",
    "4123": " ଗ୍ରୀକ୍",
    "4124": "ବ୍ୟଥା",
    "4125": " ହେରା",
    "4126": " ଭ‍",
    "4127": " ଭ‍ଉଣୀ",
    "4128": "ଦୃଷ୍ଟି",
    "4129": " ଏଥେନ୍ସ",
    "4130": " ଓଡେ",
    "4131": " ପ୍ୟାରିସ୍‍ଙ୍କ",
    "4132": " ଆରାକ୍‌ନେ",
    "4133": " ହେଙ୍ଗୁ",
    "4134": " ଧକ୍",
    "4135": "ପ୍ଟାନ",
    "4136": ":୫୯",
    "4137": " ଅନଙ୍ଗଭ",
    "4138": " ଅନଙ୍ଗଭୀମ",
    "4139": " ଅବଧ",
    "4140": " ଅବଧୂତ",
    "4141": "ଥିତ",
    "4142": " ହୋଇଅଛି",
    "4143": "ପାଟଣା",
    "4144": "ଭାରତରେ",
    "4145": " ଉଚ୍ଚତା",
    "4146": "ଞ୍ଚଳରେ",
    "4147": "କା,",
    "4148": " ଚକ୍ଷୁ",
    "4149": "ମେହ",
    "4150": "ୋଷ,",
    "4151": " ପୀଡ଼ା",
    "4152": " ନିବାରକ",
    "4153": "ବଙ୍ଗ",
    "4154": "ସଂସ୍କ",
    "4155": "ିକୁ",
    "4156": " କରାଯାଏ।",
    "4157": " ପେଟର",
    "4158": " ଗୁଣ",
    "4159": " କୁହାଯାଇଛି",
    "4160": "ଭଗ",
    "4161": "ଭଗବା",
    "4162": " କାମନା",
    "4163": " ସାରି",
    "4164": " ପ୍ରତିମାକୁ",
    "4165": " ଅବତାର",
    "4166": " କହିଛନ୍ତି",
    "4167": " ସ୍ୱର୍ଗ",
    "4168": " ପ୍ରାପ୍ତି",
    "4169": " ଶୁକ୍ଳପକ୍ଷ",
    "4170": "ଗଛ",
    "4171": "ହେଲା",
    "4172": " ଅନୁଯାୟୀ,",
    "4173": "ପାଠ",
    "4174": " ଲାଗିଲେ",
    "4175": " ସମାଧାନ",
    "4176": "ଠିକ୍",
    "4177": "ମ୍ପରା",
    "4178": " ଏହିଦିନ",
    "4179": " ଅଂ",
    "4180": " ମିଟର୍",
    "4181": " ବିଶ୍ଵର",
    "4182": " ଆଡକୁ",
    "4183": "୍ରାଜ",
    "4184": " ରାଜକୀୟ",
    "4185": " ଅନୁସ",
    "4186": " ସମୟରୁ",
    "4187": " ପାରମ୍ପରିକ",
    "4188": "ଶ୍ରେ",
    "4189": "ବର୍ତ୍ତମାନ",
    "4190": " ପର୍ଯ୍ୟଟକଙ୍କ",
    "4191": " ଢାଞ୍ଚ",
    "4192": " ଢାଞ୍ଚାରେ",
    "4193": "ପାର୍",
    "4194": "ଣର",
    "4195": " କେନ୍ଦ୍ରରେ",
    "4196": " ବିଶେଷତା",
    "4197": " କରିବା,",
    "4198": " ମନ୍ଥ",
    "4199": "”ର",
    "4200": "ପତ୍ତି",
    "4201": "ସାମ୍",
    "4202": "ପ୍ରତିକ",
    "4203": " ରିପ୍",
    "4204": " ସହରରେ",
    "4205": " ଲୋକକଥା",
    "4206": " ମେଲେ",
    "4207": " ସ୍ଥାନୀୟ",
    "4208": "ାବ୍ଦ",
    "4209": " ରାଜୁତି",
    "4210": " କଣ",
    "4211": " ହୋଇଥାଇ",
    "4212": " ଶିଳାଚିତ୍ର",
    "4213": " ଅର୍ଦ୍ଧ",
    "4214": "ସମା",
    "4215": "ଶ୍ଚର୍ଯ୍ୟ",
    "4216": " ପରଠାରୁ",
    "4217": "ଶୂନ୍ୟ",
    "4218": " ଅନାବ",
    "4219": " ସାଜ",
    "4220": " ଅନୁଶୀଳନ",
    "4221": " ଜାପାନ",
    "4222": "ତ୍ରୀମାନେ",
    "4223": " ଅଧିବାସୀ",
    "4224": " କଥ",
    "4225": "ନବିଂଶ",
    "4226": "ଭାଗରେ",
    "4227": " ଫରା",
    "4228": " ଅନ୍",
    "4229": "ାବଳୀ",
    "4230": " କରାଇଥିଲେ",
    "4231": "ୌଣସି",
    "4232": " ସାକ୍ଷ",
    "4233": " ବିଦେଶୀ",
    "4234": "ନଥିଲେ",
    "4235": " ଶୈଳୀ",
    "4236": " ଉପରକୁ",
    "4237": " ୪୫",
    "4238": "ଉତ୍ତର",
    "4239": " ସ୍ଥିତି",
    "4240": " ଜଳା",
    "4241": " କରିପାରୁ",
    "4242": " ଦଣ୍ଡାୟ",
    "4243": " ଦଣ୍ଡାୟମାନ",
    "4244": "ଲେଜ୍",
    "4245": "ଧୀ",
    "4246": " ପରିଚାଳିତ",
    "4247": "ତ୍ନତତ୍ତ୍ଵ",
    "4248": "ନ୍ନିକା",
    "4249": " ଶିଳ୍ପ",
    "4250": " ଗାଥା",
    "4251": "ପୁଞ୍ଜ",
    "4252": " ସୂକ୍ଷ୍",
    "4253": " ସୂକ୍ଷ୍ମ",
    "4254": " କେଉଁ",
    "4255": " ପ୍ରାକୃତିକ",
    "4256": " ସନ୍ତୁ",
    "4257": "ଣିର",
    "4258": "ପଦ୍ମ",
    "4259": "ା,",
    "4260": "ସରା",
    "4261": " ସୁନା",
    "4262": "ବାହାର",
    "4263": ")ର",
    "4264": " ଫୁଟ୍)",
    "4265": "ଟରୁ",
    "4266": "ବିଶିଷ୍ଟ",
    "4267": "ପ୍ରତ୍ୟେକ",
    "4268": "ଦକ୍ଷ",
    "4269": " ଏକଦା",
    "4270": "ହସ୍ତ",
    "4271": " ନଗର",
    "4272": " ସାହି",
    "4273": " ଛାଡିଦେଲେ",
    "4274": " ସଦୃଶ",
    "4275": " ପାଠାଗାର",
    "4276": " ପୋଖ",
    "4277": " ପୋଖରୀ",
    "4278": " ନକ",
    "4279": " ବାହ୍ୟ",
    "4280": " ଦିଆଯାଇଛି",
    "4281": "ଦେବତା",
    "4282": "ସାଧ୍ୟ",
    "4283": " ୬୫",
    "4284": " ଚାରୋଟି",
    "4285": " ଭର୍",
    "4286": " ସମ୍ମି",
    "4287": "ସମ୍ପ",
    "4288": " ସର୍ବୋ",
    "4289": "ୃଷ୍ଟ",
    "4290": " ବର୍ଣ୍ଣିତ",
    "4291": " ୩୨",
    "4292": " ୩୭",
    "4293": " ଅସୁର",
    "4294": "କୀ",
    "4295": " ୯୧",
    "4296": " ଦକ୍ଷିଣା",
    "4297": " ବିଷୁବ",
    "4298": " କୋଣରେ",
    "4299": "-୪",
    "4300": " ପାଇଥିବା",
    "4301": " ବିଷୟବ",
    "4302": " ବିଷୟବସ୍ତୁ",
    "4303": "ଗ୍ନ",
    "4304": " ଅନ୍ୟାନ୍ୟ",
    "4305": " ଏଥି",
    "4306": " ଖୁବ୍",
    "4307": " ଡି-",
    "4308": " ୧୯୭୦",
    "4309": " କରିଦିଆଗଲା",
    "4310": "ଲରୁ",
    "4311": " ସଂସ୍ଥାର",
    "4312": "ୀନ୍",
    "4313": " ଅବକ୍ଷୟ",
    "4314": " ହେବାରୁ",
    "4315": " କୀଟା",
    "4316": " କୀଟାଣୁ",
    "4317": " କରିଦିଏ",
    "4318": " ଗଣନା",
    "4319": " ୨୦୧୩",
    "4320": "ଆସୁ",
    "4321": " ସଂଖ୍ୟାରେ",
    "4322": " ସ୍ପର୍ଶ",
    "4323": " ସରକାରଙ୍କ",
    "4324": " ସମି",
    "4325": " ସମିତି",
    "4326": " ସଚେ",
    "4327": " ସଚେତନ",
    "4328": "ରେଇ",
    "4329": "ଦେବା",
    "4330": " ଆଖି",
    "4331": " ବଳି",
    "4332": " ହୋଇପାରିବ",
    "4333": "ଦୁର୍",
    "4334": "ଅଂଶୁ",
    "4335": "ଅନ୍ୟା",
    "4336": "ଅନ୍ୟାନ୍ୟ",
    "4337": " ପରିଶ୍ରମ",
    "4338": " ଢେ",
    "4339": " ଔଷଧ,",
    "4340": "ଲକ୍ଷଣ",
    "4341": " ପୃ",
    "4342": " ପୃଥ",
    "4343": " ଶିରାଭ୍ୟନ୍ତର",
    "4344": " କୂ",
    "4345": " ବ୍ୟାପି",
    "4346": "ଏକୱା",
    "4347": "ଏକୱାଡ୍",
    "4348": "୨)",
    "4349": "ଦିବସ",
    "4350": "ଦିବସୀୟ",
    "4351": " ଦ୍ରୁତ",
    "4352": " ବେଟିଙ୍ଗ",
    "4353": " କୁହାଯାଉଥିଲା",
    "4354": " ୨ଟି",
    "4355": " କ୍ରି",
    "4356": " କ୍ରିକେଟରୁ",
    "4357": " 'ଅ",
    "4358": "ଓଡ଼ିଆଚଳଚ୍ଚିତ୍ର",
    "4359": " କଥାଚିତ୍ରଟିରେ",
    "4360": " ବିଭୂତି",
    "4361": " ବାପି",
    "4362": " ଶୈଳ",
    "4363": " କଣ୍ଠଶିଳ୍ପୀ",
    "4364": " ପୂର୍ଣ୍ଣମୀ",
    "4365": " ଅଇଘରା",
    "4366": "ନ୍ୟୁ",
    "4367": "ନ୍ୟୁତ୍ସବ",
    "4368": "ାରିକ",
    "4369": "ଶିଖା",
    "4370": " ସଂଗ୍ରହ",
    "4371": " ସାଇ",
    "4372": " ଗ୍ରାମର",
    "4373": "ଧ୍ୟା",
    "4374": " ଖୋଳ",
    "4375": "ତ୍ତନ",
    "4376": "ସଲ",
    "4377": " କରାଯାଉଥିବା",
    "4378": "ଙ୍ଗଳ",
    "4379": " ପୋଡ଼ି",
    "4380": "ପୁରୀ",
    "4381": " ପଟ",
    "4382": " ପୋତି",
    "4383": " ଲଗା",
    "4384": " ପରସ୍",
    "4385": " ପରସ୍ପର",
    "4386": " ଗାଇ",
    "4387": "୭୪",
    "4388": " ଅଉରଙ୍ଗାବାଦ",
    "4389": "୧୫",
    "4390": "୨୦୧୧",
    "4391": " ଗ୍ରୀଷ୍ମ",
    "4392": "ଳୀୟ",
    "4393": " ସେଣ୍ଟିଗ୍ରେ",
    "4394": " ସେଣ୍ଟିଗ୍ରେଡ",
    "4395": "ଭୂତ",
    "4396": " ଆଠମ",
    "4397": " ଆଠମଲ୍ଲିକ",
    "4398": "ଶିବ",
    "4399": " ନିକଟସ୍ଥ",
    "4400": "ଲାଡ",
    "4401": "ମାଲ",
    "4402": " ଦୁର",
    "4403": "ବର୍ତୀ",
    "4404": " ରହୁ",
    "4405": " ସମୁଦ୍ରରେ",
    "4406": " ଅବସରରେ",
    "4407": " ସିଣ୍ଡ୍ରୋ",
    "4408": " ସିଣ୍ଡ୍ରୋମ",
    "4409": " ଶୋଇବା",
    "4410": "ଘଟଣା",
    "4411": " ଜନ‌କ",
    "4412": " ସଂକ୍ରମଣ,",
    "4413": " ଶ୍ୱାସ",
    "4414": "କରଣ",
    "4415": "ଶୁର",
    "4416": " ହଠ",
    "4417": " ହଠାତ",
    "4418": " ୨୦୧୧ରେ",
    "4419": "ପାଠା",
    "4420": " ନାମ:",
    "4421": " ଲତା",
    "4422": " କୁଳ",
    "4423": " ପର୍ଯ୍ୟା",
    "4424": " ଶ୍ଵେତ",
    "4425": "ବର୍ଣ୍ଣ",
    "4426": " ନାରଙ୍ଗୀ",
    "4427": " ବୀଜ",
    "4428": "କ୍ରା",
    "4429": " ଲମ୍ବା",
    "4430": " ସଙ୍କୋ",
    "4431": "ବର୍ଷରେ",
    "4432": "୧.",
    "4433": "ନ୍ଧ୍ର",
    "4434": " ପ୍ରଦେଶରେ",
    "4435": "ୟେ",
    "4436": " ବର୍ମା",
    "4437": " ଥାଇଲାଣ୍ଡ",
    "4438": "ାଇନ(",
    "4439": "କ୍ଲେ",
    "4440": " ପ୍ରମାଣିତ",
    "4441": "ରାଜ୍ୟର",
    "4442": "ମୂଳ",
    "4443": " ଆହରିତ",
    "4444": "ସୋମା",
    "4445": " ପରଜୀବୀ",
    "4446": " ଘାତ",
    "4447": " ପୀଡାହାରୀ",
    "4448": "ଜିନ",
    "4449": " କ୍ରିୟ",
    "4450": " କ୍ରିୟା",
    "4451": " ଅତିସାର",
    "4452": "କୁହା",
    "4453": " ସାମଲ,",
    "4454": " ସ୍ୱାଇଁ",
    "4455": " ଜନସଂଖ୍ୟ",
    "4456": " ସମୁ",
    "4457": " ଆସିଥିଲା",
    "4458": " ଚାଷ",
    "4459": " ରୋମାନ",
    "4460": "ଖୋ",
    "4461": "ନ୍ଧାନ",
    "4462": " ୧୯୮୬",
    "4463": "ଯୋ",
    "4464": " ମେନନ୍‌",
    "4465": " ମାୟା",
    "4466": "୦ରେ",
    "4467": " ନାଗାର୍ଜୁନଙ୍କର",
    "4468": "ଡ଼ା‌",
    "4469": "‌‌",
    "4470": "ନ‌",
    "4471": " ଦଗୁପତି",
    "4472": " ସଭି",
    "4473": " ପ୍ରଯୋଜକ",
    "4474": " ଅମଲା",
    "4475": " ଗୀ",
    "4476": "ର୍ଡ଼ର",
    "4477": " ନେଇଛନ୍ତି",
    "4478": " ବର୍ଷରେ",
    "4479": " ଶୁଦ୍ଧ",
    "4480": " ଖୋଲି",
    "4481": " ନବା",
    "4482": " ଖ୍ରୀ",
    "4483": " ଅଲୋଚକ",
    "4484": " ଫିଲ୍ମ‌",
    "4485": " ତମ",
    "4486": " ନୃତ୍ୟ",
    "4487": " ଆଣିବା",
    "4488": "ବଡ଼",
    "4489": " ଖଳ",
    "4490": " ପ୍ରତିଶୋଧ",
    "4491": " ଚୈ",
    "4492": "୨୦୧୪ରେ",
    "4493": " ପରିବାରର",
    "4494": " ରଖିଥିଲେ",
    "4495": "ଙ୍କଦ୍ୱାରା",
    "4496": " ଅଭିନୟକୁ",
    "4497": " ଦ୍ୱି",
    "4498": "ଷୀ",
    "4499": "ହାସ",
    "4500": "ଲାୟ",
    "4501": "ଅକ୍ଟୋବର",
    "4502": " ଘୋଷଣା",
    "4503": " ୧୯୫୯",
    "4504": " ଦୂରଦର୍ଶ",
    "4505": "ଟିରୁ",
    "4506": " ଅତିଥି",
    "4507": " ୯ଟି",
    "4508": " ୩ଟି",
    "4509": " ପୁରସ୍କାରରେ",
    "4510": "ଦାତା",
    "4511": " ମନୋରଞ୍ଜନ",
    "4512": " ଗୋପାଳ",
    "4513": " ବିଜ",
    "4514": " ସଭାପତି",
    "4515": " ଫ୍",
    "4516": " ନାଗାର୍ଜୁ",
    "4517": "ସୂଦନ",
    "4518": " ନାରାୟଣ",
    "4519": " ସଂଗୀତ",
    "4520": " ଚାଲୁ",
    "4521": "ଣୀ,",
    "4522": " ଖୋଜ",
    "4523": "ଟିଂ",
    "4524": " ହସ୍ତ",
    "4525": " ଅମିତାଭ",
    "4526": " ତେଲ",
    "4527": " କୋଟି",
    "4528": " ପ୍ରସାରିତ",
    "4529": " ପଶୁ",
    "4530": " ଆନୁ",
    "4531": "ଶହ",
    "4532": " ପ୍ରଜାତିର",
    "4533": " ବିଶ୍ଵରେ",
    "4534": " ଆକୃତି",
    "4535": " ଆକୃତିର",
    "4536": " ୪୮",
    "4537": " ଦେଖାଯାଆନ୍ତି",
    "4538": " ପାଉଣ୍ଡ",
    "4539": " ବିଚରଣ",
    "4540": " ଦେଖାଯାଉଥିବା",
    "4541": " ୪ରୁ",
    "4542": " ପ୍ରଭାବରେ",
    "4543": " ୮୬",
    "4544": "ୋଗ୍ରାଫି",
    "4545": "ଜାଣି",
    "4546": " ଧାଡ଼ି",
    "4547": "ଚ,",
    "4548": "ଟ୍ରା",
    "4549": " ସାରିକା",
    "4550": " ବଚ୍ଚ",
    "4551": "କୋଟି",
    "4552": " ଧାର",
    "4553": " ଚକ୍ରବର୍ତ୍ତୀ",
    "4554": " ଓଡ଼ିଆରେ",
    "4555": " ରୂପା",
    "4556": "ଦୀ,",
    "4557": " ଈ",
    "4558": "’ଙ୍କ",
    "4559": " ପୁଣ",
    "4560": " ପୁଣ୍ୟ",
    "4561": " ସ୍ୱୟଂ",
    "4562": " ଜନକ",
    "4563": "ଭୂମିକ",
    "4564": " ହୋଇଛନ୍ତି",
    "4565": " ସ୍ତୁ",
    "4566": " କରାଯାଉଛି",
    "4567": " ମନ୍ତ୍ର",
    "4568": "ତାଳ",
    "4569": " ଆସିଥାଏ",
    "4570": " ଚିତ୍ରକର",
    "4571": "ସି,",
    "4572": " ଶ୍ରୀକ୍ଷେତ୍ରରେ",
    "4573": " ଶ୍ରୀମନ୍ଦିରରେ",
    "4574": "ଣୀରେ",
    "4575": " ଦୂରଦର୍ଶନ",
    "4576": " ୧୯୯୮",
    "4577": " ଧାରାବାହିକରେ",
    "4578": " ଏକ୍ସ",
    "4579": " ଚାକିରି",
    "4580": "୧୯୫୭",
    "4581": " ଗୋଟି",
    "4582": "ବଦ",
    "4583": "ଣ୍ଡୀ",
    "4584": "\"କୁ",
    "4585": " ତୁମେ",
    "4586": " ପୁସ୍ତକ",
    "4587": "୧୨",
    "4588": " ଆଗ୍ରହ",
    "4589": " ଶ୍ରେଣୀରେ",
    "4590": "ଏଟର",
    "4591": "ଷ୍ଠାନ",
    "4592": "ମଣ୍ଡଳରେ",
    "4593": " ପୃଥିବୀ",
    "4594": "ୃଷ୍ଠ",
    "4595": "ଲିଅନ୍",
    "4596": "ସିଏ",
    "4597": "ସିଟୋ",
    "4598": "ସିଟୋସିନ",
    "4599": " ହରମୋ",
    "4600": " ସାଂଘାତିକ",
    "4601": " ଦେଖାଯାଇ",
    "4602": " ଗ୍ରନ୍",
    "4603": "ଖଣ୍ଡ",
    "4604": " ନିଶ୍ଚ",
    "4605": " ଶୁଖି",
    "4606": " ରୋଷ",
    "4607": " ଘରକୁ",
    "4608": " ନିଷ୍ଠାର",
    "4609": " ପୁରୀର",
    "4610": " ଅର୍ପଣ",
    "4611": " ୩୦ରୁ",
    "4612": " ବଳଭଦ୍ର",
    "4613": "୨୭",
    "4614": "ବିହାରୀ",
    "4615": " ଖୋର୍ଦ୍ଧା",
    "4616": " ହାଇସ୍କୁ",
    "4617": "ଟ୍ରିକ",
    "4618": "ମୋହନ",
    "4619": "ମୋହ",
    "4620": " ପ୍ରକାଶିତ",
    "4621": "ବାର୍",
    "4622": " ଭଞ୍ଜନ",
    "4623": " ଭଞ୍ଜନଗର",
    "4624": "ଘୁ",
    "4625": " ଊ",
    "4626": "ବୋଧ",
    "4627": " କୋଇ",
    "4628": " ରଚୟ",
    "4629": " ରଚୟିତା",
    "4630": "ଇଣ୍ଡୋ",
    "4631": "ଲେସିଆ",
    "4632": "ଲାଦେଶ",
    "4633": "ନେସିଆ",
    "4634": "ଁମାର",
    "4635": " ବ‌ହୁ",
    "4636": " ବଢ଼ିବା",
    "4637": " ସିଜର",
    "4638": "ଶାସ",
    "4639": " ପଠ",
    "4640": " ଜଣାପଡ଼େ",
    "4641": " ଭବିଷ୍ୟତ",
    "4642": "ଜିଲ",
    "4643": " ଏମ",
    "4644": " ଏମ.",
    "4645": " ନିର୍ଦେଶ",
    "4646": " ୨୦୧୬",
    "4647": "ଟିକ୍",
    "4648": " କୋଷ୍ଠ",
    "4649": " କୋଷ୍ଠକା",
    "4650": " କୋଷ୍ଠକାଠି",
    "4651": " କୋଷ୍ଠକାଠିନ୍ୟ",
    "4652": "ଗର୍ଭାବ",
    "4653": " ମାସରେ",
    "4654": "ଡେନୋ",
    "4655": "ଡେନୋକାର୍",
    "4656": "ଡେନୋକାର୍ସିନୋ",
    "4657": " ହ୍ରାସ,",
    "4658": " ଗାଢ଼",
    "4659": "ହେବ",
    "4660": " କ୍ୱ",
    "4661": " ଦେଖାଯାଏ,",
    "4662": "ଟ୍ରାସା",
    "4663": "ଟ୍ରାସାଉଣ୍ଡ",
    "4664": " ତନ୍ତୁ",
    "4665": " ଚତୁର୍ଥ",
    "4666": " ଏକମାତ୍ର",
    "4667": " ଫଳା",
    "4668": " ଫଳାଫଳ",
    "4669": "ସାହ",
    "4670": "ଶୀଘ୍ର",
    "4671": " ବଞ୍ଚିବା",
    "4672": "ପାକ",
    "4673": " ଜଟୀ",
    "4674": " ଜଟୀଳ",
    "4675": " ମଦ୍ୟ",
    "4676": " ମଦ୍ୟପାନ",
    "4677": " ପିତ୍",
    "4678": " ରହିଲେ",
    "4679": "ବୁଦ",
    "4680": " ରକ୍ତରେ",
    "4681": " ପରୀକ୍ଷାରେ",
    "4682": " ନଳୀ",
    "4683": "ଦୀର୍ଘ",
    "4684": " ଗର୍ଭରେ",
    "4685": " ଜନ୍",
    "4686": " ଏହାଙ୍କ",
    "4687": "ୟବ",
    "4688": " ମୁକୁ",
    "4689": " କବିତ",
    "4690": " ଡ୍ର",
    "4691": " ଶତ୍ରୁ",
    "4692": " ଦାୟୀ",
    "4693": " ବିଫଳ",
    "4694": "ଣିରେ",
    "4695": " ରାସ୍ତାରେ",
    "4696": " ଉଦ୍ଧାର",
    "4697": " ରାଉ",
    "4698": " ମହାପାତ୍ର,",
    "4699": "ୁଆଲ",
    "4700": "ବଂଶର",
    "4701": "ବିକା",
    "4702": " ବିଦର୍ଭ",
    "4703": " ଅଗ୍ନିଶ୍ଵର",
    "4704": " ଜଗନ୍ନାଥଙ୍କ",
    "4705": " ବୁହା",
    "4706": "ୋଧକ",
    "4707": " ନମ",
    "4708": " ମହାଦେବଙ୍କ",
    "4709": " ନିମ୍ନରେ",
    "4710": "ଲିପି",
    "4711": " ନମ୍ବର",
    "4712": "ହାନ୍ତି",
    "4713": " କ୍ଷରଣ",
    "4714": " ସୁସ୍ଥ",
    "4715": " କପ୍",
    "4716": " ସମ୍ପୁର୍ଣ୍ଣ",
    "4717": "ଦାୟୀ",
    "4718": " ଖଣିଜ",
    "4719": " ଛଡା",
    "4720": "ପେଟ",
    "4721": " ଝାଡା",
    "4722": " ସଂପୂର୍ଣ୍ଣ",
    "4723": " ସଂସ୍ଥାନର",
    "4724": "ଟସ୍",
    "4725": " ପ୍ରତିରୋ",
    "4726": " ଯଥା:-",
    "4727": "େର",
    "4728": "ମାଟୋ",
    "4729": " ନିର୍ଣ୍ଣୟାତ୍ମକ",
    "4730": "ାୟକ",
    "4731": " ପ୍ରକ୍ରିୟା",
    "4732": " ଉଚ୍ଚିତ",
    "4733": " ପରିମାଣରେ",
    "4734": "ସର୍ବ",
    "4735": "ୟୁର୍",
    "4736": "ହିତାର",
    "4737": "ସ୍ତା",
    "4738": "ଦ୍ଦ",
    "4739": "ମାରେ",
    "4740": " ପ୍ରଦତ୍ତ",
    "4741": " ଉଚ୍ଚତମ",
    "4742": " ନିମ",
    "4743": " ନିମିତ୍ତ",
    "4744": "ଲକ୍ଷ୍",
    "4745": "ୟରେ",
    "4746": "ଘରିଆ",
    "4747": "ତିଶ",
    "4748": "ପୁର,",
    "4749": " ଗୁଜରାଟର",
    "4750": " ଟେନି",
    "4751": " ଟେନିସ",
    "4752": " ସିଙ୍ଗ",
    "4753": " ସିଙ୍ଗଲ୍ସ",
    "4754": "ଜି,",
    "4755": " ୨୦୦୯",
    "4756": " ରୀତି",
    "4757": " ଗଲୁ",
    "4758": "କୁର",
    "4759": "ଙ୍କିଲୋସ୍ଟୋ",
    "4760": "ଙ୍କିଲୋସ୍ଟୋମା",
    "4761": "ନ୍‌ସ",
    "4762": " ସଂକ୍ରମିତ",
    "4763": " ଅଣ୍ଡ",
    "4764": " ପାଦରେ",
    "4765": " କରିବାଦ୍ୱାରା",
    "4766": "ଅନ୍ତ",
    "4767": " ଗୋଡ଼",
    "4768": " ସୁଡ଼",
    "4769": " ସୁଡ଼ଙ୍ଗ",
    "4770": " କାଶ,",
    "4771": "ଗତି",
    "4772": " ଧଳା",
    "4773": " ମାଈ",
    "4774": "ଯାଏ,",
    "4775": " ପଟୁ",
    "4776": " ଫୁଟି",
    "4777": " ପତଳା",
    "4778": " ସତ",
    "4779": " ସତର୍କ",
    "4780": " କାମୁଡ଼",
    "4781": " ଶରୀରରେ",
    "4782": " ଆସ",
    "4783": " ନର୍ମା",
    "4784": " ନର୍ମାଲ",
    "4785": " ସାଲାଇ",
    "4786": " ଖୋଜି",
    "4787": " ସ୍ପ୍ରେ",
    "4788": " ମହର୍ଷିଙ୍କ",
    "4789": " ଗୁମ୍ଫା",
    "4790": "ଷ୍ଟମ",
    "4791": " ପୂର୍ବା",
    "4792": "ଭିମୁଖ",
    "4793": "ଭିମୁଖୀ",
    "4794": "ଋଷି",
    "4795": " ମଠ,",
    "4796": " ଋଷିଙ୍କ",
    "4797": " ସନ୍",
    "4798": " ମାନଙ୍କୁ",
    "4799": "କମ୍ପ",
    "4800": "ତାକୁ",
    "4801": "ଳେଇ",
    "4802": " ଦିଆଯାଇଥିଲା",
    "4803": " ହୋଇଥିଲା।",
    "4804": "ପୁରାତନ",
    "4805": " ବ୍ରିଟିଶ",
    "4806": " ଅଭୟାରଣ",
    "4807": "ଯକ",
    "4808": " .",
    "4809": "ଅଚଳ",
    "4810": "୭%",
    "4811": "ଘରୁ",
    "4812": " ଅଚିନ୍ତା",
    "4813": " ସେବକମାନେ",
    "4814": " ଛୁ",
    "4815": " ଗଜପତି",
    "4816": " ଉପନ୍ୟାସ",
    "4817": " ଘଟ",
    "4818": " ଡାକୁ",
    "4819": "ଗଳ୍ପ",
    "4820": " କାବ୍ୟ",
    "4821": " ଭକ୍ତି",
    "4822": " ବ୍ୟଙ୍ଗ",
    "4823": "ଦକ",
    "4824": " ବ୍ଳକ",
    "4825": " ଅଚ୍ୟୁତାନନ୍ଦ",
    "4826": " ବଂଶରେ",
    "4827": "ପୁତ୍ର",
    "4828": " ଡାକି",
    "4829": " ମିଳୁଛି",
    "4830": " ଅଧ୍ୟ",
    "4831": " ବାବୁ",
    "4832": " ୧୨ଟି",
    "4833": "ନେରା",
    "4834": "ପ୍ରକାର",
    "4835": " ଇଉରୋ",
    "4836": "ଅଜନ",
    "4837": "ଅଜନସିଙ୍ଗ",
    "4838": "ଅଜନସିଙ୍ଗେନିଆ",
    "4839": "ପୁରି",
    "4840": " ଓଭି",
    "4841": "ରାପ୍",
    "4842": " ଡିଜିଜ",
    "4843": " ପ୍ରଶାସନିକ",
    "4844": " କରିଦେଲେ",
    "4845": " ସୋହମ",
    "4846": "ୀରା",
    "4847": " ମାମ",
    "4848": " ଘରୋଇ",
    "4849": " ଡାହାଣ",
    "4850": "ରାହାଣେ",
    "4851": " ଟ୍ରଫିରେ",
    "4852": " ବିଶ୍ଵକପରେ",
    "4853": " ମେଚରେ",
    "4854": " ମଞ୍ଚ",
    "4855": " ୧୯୭୨",
    "4856": " ଅଲିମ୍ପିକ୍‌ସରେ",
    "4857": " ପ୍ରତିନିଧିତ୍ୱ",
    "4858": " କାଂସ",
    "4859": " କାଂସ୍ୟ",
    "4860": " ନେତୃତ୍ୱ",
    "4861": "ଯଦିଓ",
    "4862": " କ୍ରୀଡ",
    "4863": " ବାଛି",
    "4864": " ଦେଶରେ",
    "4865": "ଜିମ୍",
    "4866": " ପ୍ରେମଜୀ",
    "4867": "ପୌ",
    "4868": " ୱିପ୍ର",
    "4869": " ୱିପ୍ରୋର",
    "4870": " ଗି",
    "4871": " କରିଥିଲେ।",
    "4872": " ହସି",
    "4873": "ଡକ୍",
    "4874": "ଧୁଆ",
    "4875": " କାର୍ଯ୍ୟକାରୀ",
    "4876": " ଉପାଧି",
    "4877": " କ୍ରିକେ",
    "4878": "ତ୍ରେତୟା",
    "4879": "ଏପରିକି",
    "4880": " ମୁଖ୍ୟମନ୍ତ୍ରୀ",
    "4881": "ଲଭ",
    "4882": " କଳାରେ",
    "4883": " ପଢିବା",
    "4884": " ତାଲି",
    "4885": " ତାଲିମ",
    "4886": " ଏୟାର୍",
    "4887": " ବ୍ୟାଙ୍କ",
    "4888": "ନାଲ୍",
    "4889": " ରାଜ୍ୟଗୋ",
    "4890": " ରାଜ୍ୟଗୋଷ୍ଠ",
    "4891": " ରାଜ୍ୟଗୋଷ୍ଠୀ",
    "4892": " ୪ଟି",
    "4893": " ଆଫ୍ରୋ",
    "4894": " ମହାବିଦ୍ୟାଳୟରେ",
    "4895": " ଖି",
    "4896": "ନ୍ଦା",
    "4897": " ପଏଣ୍ଟ୍",
    "4898": "ର୍ବରୁ",
    "4899": "ଭୋକ୍ତା",
    "4900": " ଅବଧି",
    "4901": " ଜଗ",
    "4902": " ସଭାକୁ",
    "4903": " ସଂସଦ",
    "4904": " ମଣ୍ଡଳୀରୁ",
    "4905": "ାନୀ",
    "4906": " କୌଶ",
    "4907": " ଘଟିଥିଲା",
    "4908": "ପାକିସ୍ତାନ",
    "4909": "ହୋର",
    "4910": " ବସି",
    "4911": " ଉଦୟ",
    "4912": " ଏନ୍",
    "4913": "ଅଟାରୀ",
    "4914": " ଅମୃତସର",
    "4915": " କି.ମି",
    "4916": "ରିବା",
    "4917": "ସ୍ଵପରାୟଣତା",
    "4918": " କ୍ଵଚିତ",
    "4919": "ୋଇମ୍ମ୍ୟୁନ",
    "4920": " ଅସାଧାରଣ",
    "4921": " ଚିକିତ୍ସାରେ",
    "4922": " ଚାଉଳ",
    "4923": " ଗୁଣ୍ଡ",
    "4924": "ସ୍ରବଣ",
    "4925": " ରଥରେ",
    "4926": "ଡୁ",
    "4927": "ଦଳା",
    "4928": " ବଢ",
    "4929": "ାଳନ",
    "4930": "ଭାରିଆ",
    "4931": " ଭୃଣ",
    "4932": " ଗଦା",
    "4933": " ଚାଲିଥାଏ",
    "4934": "ଯନ୍ତ୍ରଣା",
    "4935": " ଉଠେଇ",
    "4936": " ଅନିର୍ଦ୍ଦିଷ୍ଟ",
    "4937": " ପାରାସେଟାମୋଲ",
    "4938": " ସ୍ପାଇ",
    "4939": "ଧକ",
    "4940": "ଣ୍ଟାରେ",
    "4941": " ସିଆ",
    "4942": "ଅଧା",
    "4943": " ଟ୍ୟୁ",
    "4944": "ଶାରୀରିକ",
    "4945": " ଫଳପ୍ରଦ",
    "4946": " ଭୋଗୁଥିବା",
    "4947": ".ଏ.ଆଇ.ଡି.",
    "4948": "ସିୟମ",
    "4949": "ଅତାବିରା",
    "4950": "ଅତିସକ୍ରିୟ",
    "4951": "ଫିନ",
    "4952": " ଅରୁ",
    "4953": " ଅଥାନ",
    "4954": " ମେଟି",
    "4955": " ମୁଣ୍ଡବ୍ୟଥା",
    "4956": "ପ୍‍ହା",
    "4957": "ପ୍‍ହାଏ",
    "4958": "ପ୍‍ହାଏସ୍ତ",
    "4959": "ଖ୍‌",
    "4960": "ଖ୍‌ତ",
    "4961": "ଖ୍‌ତୋନି",
    "4962": "ଖ୍‌ତୋନିଉ",
    "4963": " ଏଥେନ୍ସର",
    "4964": " ସର୍ପ",
    "4965": "ସାଇଡ",
    "4966": " ମାତୃ",
    "4967": " ଓଡେଶି",
    "4968": " ଓଡେଶିୟ",
    "4969": " ବୁଢୀ",
    "4970": " ବୁଢୀଆ",
    "4971": "ଅଦାକୁ",
    "4972": " ୨୦୧୪ର",
    "4973": " ଭାଜି",
    "4974": "ଦ୍ଵୈତ",
    "4975": " ଭାସ୍କର୍ଯ୍ୟ",
    "4976": "ମସି",
    "4977": " ἡ",
    "4978": " ἡμ",
    "4979": " ἡμι",
    "4980": "κρα",
    "4981": "κραν",
    "4982": "κρανί",
    "4983": ",୪୦୦",
    "4984": "୦୦:",
    "4985": " କାମଦେବ",
    "4986": " କାଞ୍ଚି",
    "4987": " କିମ୍ବଦନ୍ତୀରୁ",
    "4988": " କର୍କଶା",
    "4989": "ଣ୍ଡିନ୍ୟ",
    "4990": " ହୁଙ୍କା",
    "4991": " ମାତ୍ରା",
    "4992": "ଡ଼ାଇ",
    "4993": " ଅଂଶବିଶେଷ",
    "4994": " ଶାସ୍ତ୍ର",
    "4995": " ଅନତି",
    "4996": " ଗାଆଁଠାରୁ",
    "4997": "ତ୍ରି",
    "4998": " ଉଦ୍ଭିଦ।",
    "4999": " ଏହାଠାରୁ",
    "5000": ")।"
}